#include "network_data.h"

ai_handle ai_network_data_weights_get(void)
{

  AI_ALIGNED(4)
  static const ai_u8 s_network_weights[ 276184 ] = {
    0xdb, 0xed, 0x1d, 0x3e, 0x0b, 0xb8, 0x9f, 0xbf, 0x72, 0xf9,
    0x36, 0x3e, 0xc4, 0x39, 0xe7, 0xbd, 0xe6, 0x80, 0xaa, 0xbe,
    0xd7, 0x8d, 0x29, 0x3f, 0x43, 0x12, 0x40, 0x3f, 0x2a, 0xcf,
    0x63, 0x3f, 0x8e, 0xec, 0xa7, 0xbe, 0xc3, 0x52, 0xe3, 0xbd,
    0x3b, 0xd3, 0xdc, 0xbd, 0x6e, 0x34, 0x45, 0xbe, 0x49, 0x64,
    0x4d, 0xbd, 0xba, 0x03, 0x8e, 0x3e, 0x88, 0xcc, 0x3f, 0xbf,
    0x02, 0x31, 0x71, 0x3e, 0x1a, 0x17, 0x3a, 0xbf, 0x5e, 0x58,
    0x1b, 0x3e, 0xdb, 0xa1, 0xb0, 0xbf, 0xee, 0x43, 0x0e, 0xbf,
    0xe3, 0xbd, 0x2e, 0xbf, 0xc1, 0x6b, 0x91, 0x3e, 0xc5, 0x8a,
    0x5f, 0x3f, 0xd0, 0x75, 0xa2, 0x3f, 0x00, 0x22, 0x85, 0x3f,
    0x43, 0x45, 0x88, 0xbe, 0x90, 0xae, 0x3e, 0xbf, 0x4a, 0x49,
    0x97, 0x3e, 0x4e, 0x41, 0x3e, 0x3f, 0x8f, 0xfb, 0x2e, 0x3e,
    0xff, 0x14, 0x36, 0xbf, 0x2b, 0xe1, 0x01, 0x3f, 0xd8, 0x6d,
    0x03, 0x3f, 0x07, 0x6e, 0x82, 0xbf, 0x44, 0x66, 0x44, 0x3f,
    0x0c, 0x8b, 0x03, 0x3d, 0x86, 0x1d, 0x77, 0x3e, 0x6d, 0x8e,
    0xcf, 0xbe, 0xae, 0xf7, 0xc6, 0xbd, 0x30, 0x69, 0x3a, 0x3f,
    0x8f, 0x2d, 0x00, 0x3f, 0x16, 0x45, 0x28, 0x3f, 0xf1, 0x28,
    0x9e, 0xbd, 0x5d, 0x7c, 0x86, 0xbe, 0xc2, 0x15, 0x8e, 0x3e,
    0x10, 0xc7, 0xe0, 0xbe, 0x84, 0xbb, 0x23, 0xbf, 0x1c, 0x67,
    0x26, 0xbf, 0x64, 0xbd, 0x1b, 0xbf, 0x1e, 0xae, 0x5d, 0x3e,
    0x0b, 0xfa, 0x7a, 0xbe, 0xfa, 0xea, 0x90, 0x3f, 0xbf, 0x28,
    0xa9, 0xbe, 0xf8, 0x69, 0x25, 0xbf, 0x9f, 0xa7, 0x33, 0xbf,
    0xa9, 0x17, 0x5c, 0x3f, 0x99, 0x33, 0x1c, 0x3e, 0x55, 0x4f,
    0xd1, 0xbe, 0xe0, 0xec, 0xab, 0xbd, 0x92, 0x19, 0xc0, 0x3e,
    0x23, 0x1b, 0x4f, 0xbf, 0x33, 0xaf, 0x66, 0x3e, 0xbb, 0xcd,
    0x36, 0x3f, 0xf7, 0x3d, 0x50, 0x3d, 0xa1, 0x12, 0x09, 0x3f,
    0x80, 0xa5, 0x74, 0x3d, 0x92, 0x6a, 0xc3, 0xbe, 0x1a, 0xff,
    0xca, 0x3d, 0x53, 0xce, 0x58, 0x3e, 0x96, 0xe0, 0x49, 0xbf,
    0x87, 0x4d, 0x0b, 0x3f, 0x56, 0x1e, 0x6e, 0xbf, 0x56, 0xef,
    0x91, 0x3d, 0xf2, 0xf3, 0x75, 0x3f, 0xf2, 0xc5, 0x94, 0x3f,
    0xdf, 0x1e, 0x0e, 0xbf, 0x34, 0x65, 0x3c, 0xbf, 0xf8, 0x0c,
    0x33, 0x3e, 0x3c, 0x94, 0x68, 0xbf, 0x52, 0xe4, 0x4f, 0xbf,
    0xbe, 0x6a, 0x9f, 0xbd, 0x6f, 0xf0, 0x9a, 0xbf, 0x11, 0x7d,
    0xc4, 0x3c, 0xd5, 0xd1, 0xcf, 0x3e, 0x21, 0x63, 0x4d, 0xbe,
    0x3b, 0xaa, 0x21, 0x3f, 0x50, 0x25, 0x0f, 0x3f, 0x51, 0xa8,
    0xbf, 0xbb, 0x12, 0x07, 0x83, 0x3e, 0x23, 0x01, 0xd4, 0x3d,
    0x74, 0x5b, 0x64, 0x3e, 0x41, 0x0f, 0x53, 0xbf, 0xcd, 0x39,
    0x36, 0x3f, 0xac, 0xea, 0x05, 0xbf, 0x7b, 0x20, 0xb9, 0x3d,
    0x7a, 0x1b, 0x07, 0xbf, 0xcc, 0x3a, 0x8a, 0x3b, 0x47, 0x4b,
    0x4f, 0xbf, 0x55, 0xc4, 0x6b, 0x3f, 0xb9, 0x7b, 0x51, 0xbf,
    0xc0, 0xd8, 0x15, 0x3e, 0x36, 0x57, 0x8d, 0x3f, 0x27, 0x6e,
    0x29, 0xbf, 0x1b, 0x45, 0x27, 0xbf, 0xa9, 0x66, 0x3b, 0xbf,
    0x66, 0x13, 0x73, 0xbe, 0x9a, 0xdb, 0x31, 0x3e, 0x0b, 0x9a,
    0x0e, 0xbe, 0xb3, 0x8c, 0x06, 0x3f, 0x10, 0x10, 0x41, 0x3f,
    0x74, 0x38, 0xcc, 0xbe, 0xb4, 0x70, 0x14, 0xbf, 0x3a, 0x99,
    0x13, 0x3f, 0x8c, 0x82, 0x21, 0xbf, 0x6b, 0x65, 0x14, 0x3e,
    0x6a, 0x52, 0xe6, 0x3e, 0x3f, 0xc0, 0x32, 0x3f, 0x3a, 0x83,
    0x1b, 0xbf, 0x40, 0xbb, 0x56, 0xbf, 0x4b, 0x1d, 0x90, 0x3f,
    0xe1, 0x1d, 0x5c, 0xbf, 0xbb, 0xd8, 0x37, 0xbf, 0xfb, 0x8a,
    0x8c, 0x3f, 0x8a, 0x0d, 0x57, 0xbf, 0x93, 0x98, 0xbc, 0xbe,
    0xc0, 0xf8, 0x8c, 0x3f, 0xf3, 0xe0, 0x20, 0xbf, 0xce, 0xa0,
    0x3d, 0x3e, 0x31, 0x81, 0xca, 0xbe, 0x89, 0xda, 0xf5, 0xbe,
    0x11, 0xa4, 0x1a, 0x3e, 0x85, 0x66, 0xa6, 0xbe, 0x79, 0x86,
    0x34, 0xbf, 0x92, 0x84, 0x58, 0x3e, 0xae, 0x67, 0x07, 0xbd,
    0xe6, 0x6b, 0x1d, 0xbf, 0x8a, 0xba, 0x8b, 0x3f, 0x91, 0x40,
    0x0f, 0xbf, 0x0f, 0x2b, 0xea, 0x3e, 0x06, 0x69, 0x95, 0x3e,
    0x4a, 0xc8, 0x03, 0xbe, 0x13, 0x02, 0x5d, 0x3f, 0x7d, 0x4b,
    0x7d, 0xbf, 0x75, 0xd0, 0xdf, 0xbe, 0x59, 0x79, 0x06, 0x3f,
    0xb4, 0xd0, 0x4d, 0x3f, 0x36, 0xc2, 0xdc, 0xbe, 0x5e, 0xbf,
    0xfd, 0xbd, 0xf9, 0x4a, 0x8c, 0x3f, 0x24, 0x4a, 0x34, 0x3f,
    0x4b, 0x76, 0xa7, 0xbf, 0x9d, 0xae, 0x6e, 0xbf, 0xb0, 0x81,
    0x64, 0x3e, 0xda, 0x3e, 0x6a, 0x3d, 0x19, 0x26, 0x36, 0x3f,
    0x7c, 0x7d, 0xf2, 0x3e, 0x3c, 0x5f, 0x43, 0xbf, 0x84, 0xb9,
    0x0e, 0x3f, 0x2a, 0x50, 0x9a, 0xbd, 0x51, 0xcb, 0x61, 0xbf,
    0xbb, 0xcc, 0x82, 0xbe, 0xc6, 0xab, 0x74, 0xbf, 0x47, 0xfa,
    0x42, 0xbe, 0x2c, 0x4d, 0x22, 0xbf, 0xd1, 0xec, 0x09, 0x3e,
    0xb2, 0x79, 0x9a, 0x3e, 0xd4, 0x75, 0x07, 0x3e, 0xee, 0xb8,
    0x1c, 0xbf, 0xe5, 0xa5, 0x12, 0xbf, 0x89, 0x4c, 0xa0, 0xbe,
    0x53, 0x54, 0x33, 0xbf, 0x1d, 0x1c, 0x84, 0x3f, 0x68, 0x14,
    0xba, 0x3e, 0x92, 0x3b, 0xc3, 0x3e, 0xf8, 0x5f, 0xbf, 0xbe,
    0x57, 0xe3, 0x13, 0x3f, 0x3f, 0x6f, 0x4d, 0xbf, 0xb4, 0x0e,
    0x80, 0xbf, 0x8c, 0x8a, 0x20, 0xbf, 0xb5, 0x98, 0x3e, 0xbf,
    0x5b, 0x57, 0xb7, 0x3e, 0x2f, 0x94, 0x2f, 0x3d, 0xa0, 0x61,
    0x31, 0xbe, 0x45, 0x1c, 0x31, 0xbe, 0xb5, 0xae, 0x41, 0x3f,
    0xff, 0x8b, 0xe8, 0x3d, 0x0f, 0x52, 0x2f, 0x3e, 0x44, 0x6c,
    0x71, 0xbd, 0x47, 0xc1, 0x07, 0x3f, 0x38, 0xba, 0x98, 0x3f,
    0x77, 0x96, 0x3d, 0xbf, 0x1c, 0xf8, 0x12, 0xbf, 0x59, 0x09,
    0x0d, 0xbf, 0x09, 0x3b, 0xaf, 0xbe, 0xbc, 0xf6, 0x84, 0xbe,
    0x3e, 0x06, 0x2e, 0xbe, 0x0c, 0x3c, 0x06, 0xbe, 0x78, 0x5b,
    0xb4, 0xbe, 0xa9, 0x6c, 0x22, 0x3f, 0x3c, 0x1f, 0x49, 0x3f,
    0x19, 0x40, 0x3a, 0x3f, 0x1c, 0x26, 0x5f, 0x3f, 0xc5, 0x59,
    0x28, 0xbf, 0x76, 0x39, 0x55, 0xbf, 0xac, 0xbd, 0x9a, 0x3e,
    0xa2, 0x33, 0x7c, 0xbf, 0x78, 0x94, 0x9e, 0x3e, 0x39, 0x28,
    0x2f, 0xbf, 0x76, 0x12, 0xd1, 0xbe, 0xf8, 0x77, 0xa8, 0xbe,
    0x85, 0x9f, 0x0e, 0xbe, 0x39, 0x8d, 0x0f, 0xbf, 0x4a, 0x5d,
    0x0c, 0xbf, 0xf8, 0x94, 0xa2, 0x3f, 0x40, 0x5d, 0x2d, 0xbf,
    0x53, 0x59, 0x22, 0xbd, 0x11, 0x14, 0x89, 0xbe, 0x6a, 0x5c,
    0x3c, 0xbe, 0x23, 0x97, 0x48, 0xbe, 0x94, 0xc3, 0x9f, 0x3e,
    0x6e, 0x50, 0xd6, 0x3e, 0x84, 0x72, 0x44, 0xbf, 0x6c, 0x41,
    0x5f, 0xbc, 0xa6, 0xf9, 0x59, 0x3f, 0x37, 0xe5, 0x1c, 0xbe,
    0x7a, 0x9d, 0x85, 0x3f, 0x7f, 0xa7, 0x38, 0xbf, 0xd5, 0x7f,
    0xa2, 0xbe, 0xb3, 0x7b, 0x23, 0xbf, 0xc8, 0x09, 0x07, 0x3e,
    0x24, 0x28, 0x07, 0xbf, 0x35, 0x35, 0x2f, 0xbf, 0x8d, 0x83,
    0x28, 0x3f, 0x10, 0x34, 0x7f, 0xbe, 0x78, 0x24, 0x58, 0x3f,
    0x31, 0x44, 0xa6, 0x3f, 0x59, 0xd4, 0xc1, 0x3d, 0xfb, 0x1c,
    0x2a, 0xbf, 0x8d, 0x1c, 0xb3, 0xbe, 0x62, 0x92, 0x2d, 0x3f,
    0x93, 0x24, 0x67, 0xbf, 0x89, 0x98, 0x3a, 0xbf, 0x50, 0x71,
    0xab, 0x3e, 0xba, 0xde, 0x7e, 0xbf, 0xb5, 0xa9, 0xdb, 0x3e,
    0x3e, 0xc3, 0x15, 0xbf, 0xb0, 0x24, 0x0d, 0x3f, 0xfb, 0xca,
    0x0f, 0x3e, 0x87, 0x54, 0x0e, 0x3e, 0xbc, 0xe9, 0xf2, 0x3d,
    0xcc, 0xb7, 0x8f, 0xbe, 0x50, 0x78, 0x1a, 0x3f, 0x1f, 0xba,
    0x0a, 0x3f, 0xfe, 0xe5, 0x8d, 0xbe, 0x47, 0x9c, 0x6d, 0x3f,
    0x43, 0x4b, 0xe8, 0xbd, 0x70, 0x0e, 0xfa, 0xbe, 0x79, 0xc6,
    0x44, 0x3f, 0x7e, 0x7f, 0x27, 0xbf, 0x4a, 0xb8, 0x3c, 0xbf,
    0xd9, 0x5e, 0x4c, 0x3f, 0xe6, 0xc4, 0x62, 0x3f, 0x43, 0x15,
    0x87, 0xbc, 0x65, 0xfb, 0x80, 0xbf, 0x9c, 0x46, 0x5e, 0x3e,
    0x4a, 0xeb, 0x1f, 0x3f, 0xb1, 0x44, 0x83, 0xbf, 0xce, 0x29,
    0x35, 0x3f, 0xb5, 0xbe, 0x69, 0x3e, 0x2a, 0xa6, 0xfd, 0x3c,
    0x8e, 0xff, 0x35, 0x3f, 0x1c, 0x5b, 0x83, 0xbe, 0x33, 0xbb,
    0x3e, 0xbf, 0xb0, 0x16, 0xa4, 0x3f, 0xbf, 0xca, 0xe2, 0xbe,
    0xdb, 0xf7, 0x2a, 0xbf, 0xed, 0x47, 0xed, 0x3e, 0xed, 0xe3,
    0x6c, 0xbf, 0xb0, 0xfc, 0xf2, 0xbe, 0xf8, 0x38, 0xd9, 0x3e,
    0xbb, 0x59, 0x15, 0xbe, 0xa9, 0xf9, 0xd3, 0x3d, 0x0b, 0x77,
    0xb4, 0x3e, 0x12, 0x21, 0x2d, 0x3f, 0x54, 0x1e, 0x51, 0x3f,
    0xe1, 0x62, 0x64, 0xbf, 0x8b, 0x6a, 0x53, 0xbf, 0x78, 0x63,
    0x46, 0xbf, 0x34, 0x3e, 0xaf, 0xbe, 0x0e, 0xdc, 0x66, 0x3b,
    0xce, 0xab, 0x01, 0x3b, 0x86, 0x99, 0x2e, 0xbf, 0x77, 0x5d,
    0x18, 0xbf, 0xfb, 0xd9, 0xf2, 0x3d, 0x19, 0x71, 0xca, 0xbe,
    0x3f, 0x04, 0x10, 0x3b, 0x9d, 0xfe, 0xc9, 0xbd, 0x64, 0x04,
    0xc9, 0xbe, 0x83, 0x9a, 0x22, 0xbb, 0xab, 0x8a, 0xac, 0x3c,
    0x86, 0x3f, 0x30, 0xbf, 0x8a, 0xc4, 0xc4, 0xbe, 0x29, 0xef,
    0xab, 0x3a, 0xe0, 0xd7, 0x4e, 0xbe, 0x74, 0x93, 0x0f, 0xbf,
    0xc6, 0xd5, 0x73, 0xbc, 0xf0, 0x84, 0x31, 0x3b, 0xc4, 0x2f,
    0x19, 0xbc, 0x16, 0x6b, 0x03, 0xbf, 0xf7, 0x54, 0x34, 0x3d,
    0x21, 0x8f, 0x19, 0xbf, 0x88, 0x0c, 0x2c, 0x3d, 0xed, 0x13,
    0x1b, 0xbd, 0x42, 0x2d, 0x8a, 0x3d, 0x92, 0x4a, 0x22, 0xbf,
    0xf9, 0x4e, 0x9a, 0xbc, 0xa4, 0xf6, 0x1e, 0xbf, 0xc9, 0x37,
    0x06, 0xbf, 0x91, 0x53, 0xbb, 0xbd, 0x35, 0x23, 0xce, 0xbc,
    0xff, 0xc4, 0x49, 0xbe, 0x4e, 0xfa, 0x17, 0xbe, 0xc0, 0x5a,
    0xe9, 0xbd, 0x81, 0x2f, 0xa9, 0xbd, 0xd1, 0xd9, 0x60, 0xbd,
    0xc5, 0x34, 0x02, 0xbd, 0x10, 0x31, 0x8b, 0xbc, 0x83, 0x70,
    0xf5, 0x39, 0xff, 0x7a, 0x93, 0x3c, 0xa9, 0xb9, 0x06, 0x3d,
    0x39, 0x81, 0x6a, 0x3d, 0x77, 0x08, 0xad, 0x3d, 0xf0, 0x5b,
    0xea, 0x3d, 0xc7, 0x1f, 0x17, 0x3e, 0x0c, 0xcb, 0x45, 0x3e,
    0xdc, 0xd1, 0x76, 0x3e, 0x77, 0x78, 0x58, 0x78, 0x67, 0x88,
    0x86, 0x88, 0x89, 0x87, 0x98, 0x58, 0x88, 0x78, 0x96, 0x85,
    0x59, 0x66, 0x67, 0x89, 0x76, 0x69, 0x98, 0x69, 0x78, 0x57,
    0x67, 0x88, 0x68, 0x77, 0x77, 0x95, 0x77, 0x66, 0x68, 0x57,
    0x66, 0x76, 0x65, 0x96, 0x78, 0x88, 0x76, 0x55, 0x66, 0x77,
    0x98, 0x77, 0x66, 0x67, 0x88, 0x58, 0x66, 0x95, 0x86, 0x68,
    0x88, 0x97, 0x76, 0x67, 0x78, 0x78, 0x78, 0x87, 0x96, 0x57,
    0x79, 0x69, 0x67, 0x97, 0x97, 0x75, 0x99, 0x87, 0x68, 0x76,
    0x89, 0x86, 0x89, 0x89, 0x57, 0x66, 0x67, 0x58, 0x58, 0x57,
    0x88, 0x76, 0x95, 0x68, 0x68, 0x85, 0x56, 0x87, 0x88, 0x66,
    0x56, 0x85, 0x88, 0x66, 0x67, 0x56, 0x96, 0x87, 0x68, 0x69,
    0x99, 0x77, 0x86, 0x66, 0x58, 0x69, 0x77, 0x45, 0x85, 0x77,
    0x87, 0x89, 0x65, 0x68, 0x98, 0x65, 0x77, 0x85, 0x79, 0x67,
    0x56, 0x67, 0x88, 0x68, 0x76, 0x87, 0x78, 0x65, 0x77, 0x56,
    0x97, 0x67, 0x86, 0x59, 0x76, 0x68, 0x88, 0x85, 0x59, 0x77,
    0x86, 0x98, 0x76, 0x65, 0x55, 0x78, 0x97, 0x77, 0x78, 0x87,
    0x85, 0x76, 0x78, 0x89, 0x77, 0x55, 0x68, 0x98, 0x77, 0x85,
    0x88, 0x68, 0x97, 0x57, 0x67, 0x67, 0x67, 0x55, 0x79, 0x65,
    0x86, 0x66, 0x95, 0x99, 0x55, 0x67, 0x76, 0x65, 0x85, 0x88,
    0x89, 0x97, 0x67, 0x98, 0x88, 0x77, 0x87, 0x87, 0x85, 0x65,
    0x66, 0x89, 0x66, 0x57, 0x67, 0x99, 0x77, 0x66, 0x79, 0x85,
    0x66, 0x66, 0x88, 0x56, 0x88, 0x79, 0x78, 0x65, 0x86, 0x77,
    0x58, 0x98, 0x98, 0x88, 0x86, 0x89, 0x57, 0x56, 0x87, 0x97,
    0x85, 0x57, 0x89, 0x67, 0x76, 0x68, 0x65, 0x67, 0x78, 0x88,
    0x65, 0x69, 0x87, 0x76, 0x85, 0x79, 0x76, 0x67, 0x76, 0x58,
    0x67, 0x99, 0x79, 0x68, 0x98, 0x85, 0x65, 0x96, 0x97, 0x78,
    0x86, 0x56, 0x95, 0x65, 0x86, 0x78, 0x86, 0x86, 0x67, 0x59,
    0x79, 0x76, 0x86, 0x65, 0x87, 0x68, 0x77, 0x69, 0x87, 0x56,
    0x88, 0x77, 0x97, 0x78, 0x77, 0x67, 0xa5, 0x78, 0x59, 0x89,
    0x56, 0x68, 0x98, 0x79, 0xa6, 0x69, 0x87, 0x68, 0x85, 0x99,
    0x79, 0x78, 0xa8, 0x65, 0x76, 0x68, 0x76, 0x79, 0x85, 0x65,
    0x68, 0x68, 0x86, 0x69, 0x95, 0x79, 0x76, 0x95, 0x87, 0x77,
    0x96, 0x66, 0x75, 0x69, 0x75, 0x36, 0x57, 0x67, 0x77, 0x55,
    0x86, 0x65, 0x97, 0x77, 0x58, 0x57, 0x85, 0x65, 0x57, 0x56,
    0x76, 0x77, 0x47, 0x59, 0x64, 0x86, 0x86, 0x76, 0x57, 0x66,
    0x47, 0x58, 0x48, 0x75, 0x77, 0x47, 0x66, 0x57, 0x56, 0x46,
    0x56, 0x75, 0x77, 0x75, 0x87, 0x55, 0x58, 0x55, 0x58, 0x85,
    0x66, 0x45, 0x46, 0x48, 0x77, 0x78, 0x76, 0x75, 0x87, 0x57,
    0x68, 0x65, 0x65, 0x66, 0x45, 0x57, 0x75, 0x66, 0x68, 0x67,
    0x54, 0x86, 0x67, 0x88, 0x56, 0x86, 0x95, 0x98, 0x58, 0x67,
    0x77, 0x77, 0x78, 0x88, 0x88, 0x87, 0x66, 0x88, 0x66, 0x69,
    0x85, 0x78, 0x88, 0x86, 0x88, 0x57, 0x76, 0x87, 0x69, 0x86,
    0x69, 0x58, 0x87, 0x76, 0x95, 0x98, 0x67, 0x97, 0x96, 0x76,
    0x67, 0x79, 0x68, 0x66, 0x65, 0x86, 0x77, 0x99, 0x69, 0x76,
    0x69, 0x67, 0x98, 0x78, 0x65, 0x77, 0x97, 0x98, 0x77, 0x79,
    0x59, 0x79, 0x96, 0x99, 0x98, 0x59, 0x98, 0x77, 0x78, 0x99,
    0x99, 0x87, 0x99, 0xa6, 0x79, 0x78, 0x97, 0x59, 0xa7, 0x88,
    0x66, 0x69, 0x97, 0x99, 0x69, 0x79, 0xba, 0x69, 0x97, 0x86,
    0x88, 0xaa, 0x85, 0x58, 0x99, 0xa9, 0x78, 0x57, 0x88, 0x99,
    0x66, 0x97, 0x89, 0x68, 0x66, 0x87, 0x96, 0x99, 0x77, 0x68,
    0x68, 0x56, 0x8a, 0x59, 0xa5, 0x78, 0xa5, 0x86, 0xb7, 0x79,
    0x88, 0x67, 0x99, 0xb9, 0x89, 0x89, 0x78, 0x76, 0x58, 0x96,
    0x94, 0x89, 0x86, 0x66, 0x86, 0x85, 0x77, 0x69, 0x95, 0xa7,
    0x86, 0x88, 0x98, 0x9a, 0x97, 0x76, 0x78, 0x57, 0x97, 0x86,
    0x55, 0x82, 0x85, 0x58, 0x75, 0x68, 0xaa, 0x54, 0x87, 0x67,
    0x45, 0x55, 0x66, 0x88, 0x57, 0x74, 0x57, 0x73, 0x67, 0x56,
    0x94, 0x46, 0x79, 0x65, 0x66, 0x37, 0x46, 0x87, 0x64, 0x56,
    0x84, 0x85, 0x44, 0x73, 0x78, 0x56, 0x75, 0x64, 0x76, 0x45,
    0x56, 0x45, 0x65, 0x97, 0x65, 0x77, 0x78, 0x55, 0x55, 0x74,
    0x68, 0x47, 0x68, 0x87, 0x89, 0x85, 0x76, 0x56, 0x76, 0x76,
    0x85, 0x99, 0x56, 0x87, 0x68, 0x67, 0x68, 0x78, 0x67, 0x56,
    0x67, 0x67, 0x76, 0x58, 0x75, 0x85, 0x67, 0x85, 0x87, 0x65,
    0x68, 0x56, 0x69, 0x85, 0x76, 0x55, 0x66, 0x67, 0x79, 0x69,
    0x78, 0x76, 0x85, 0x67, 0x6a, 0x95, 0x69, 0x89, 0x87, 0x97,
    0x79, 0x78, 0x67, 0x76, 0x88, 0x98, 0x77, 0x76, 0xa7, 0x77,
    0x77, 0x78, 0x87, 0x96, 0x75, 0x77, 0x99, 0x76, 0x88, 0x79,
    0x79, 0x67, 0x98, 0x77, 0x95, 0x69, 0x94, 0x66, 0x79, 0x99,
    0x85, 0xa9, 0x78, 0x7a, 0x75, 0x47, 0x77, 0x99, 0x79, 0x88,
    0xa9, 0x97, 0x66, 0x77, 0xa9, 0x7b, 0x85, 0xa7, 0x85, 0x88,
    0x94, 0x68, 0x88, 0x99, 0x99, 0x88, 0xa9, 0x68, 0x75, 0x98,
    0x7a, 0x68, 0x76, 0x68, 0x77, 0xa7, 0x85, 0x45, 0x98, 0xa6,
    0x97, 0x45, 0x97, 0x66, 0x89, 0x77, 0x36, 0x98, 0x86, 0x57,
    0x68, 0x87, 0x77, 0x45, 0xb7, 0xa8, 0x75, 0xa8, 0x8b, 0x97,
    0x9b, 0x67, 0x67, 0x98, 0x89, 0x47, 0x78, 0x87, 0x66, 0xa5,
    0x98, 0x79, 0x49, 0xb6, 0x69, 0x66, 0x7b, 0x5b, 0x44, 0x63,
    0x96, 0x99, 0x87, 0x57, 0x9a, 0x84, 0x57, 0x78, 0x46, 0x95,
    0x67, 0x66, 0xa7, 0x7a, 0x45, 0x74, 0x75, 0x75, 0x97, 0x83,
    0x68, 0xa5, 0x47, 0x39, 0x57, 0x94, 0x58, 0x76, 0x6a, 0x63,
    0x55, 0x53, 0x85, 0x47, 0x67, 0x47, 0x68, 0x74, 0x76, 0x76,
    0x55, 0x95, 0x69, 0x78, 0x99, 0x86, 0x36, 0x74, 0x87, 0x66,
    0x54, 0x58, 0x79, 0x93, 0x87, 0xa6, 0x49, 0x86, 0x57, 0x78,
    0x58, 0x5a, 0x57, 0x54, 0x77, 0x59, 0x64, 0x47, 0x57, 0x77,
    0x67, 0x67, 0x57, 0x98, 0x55, 0x75, 0x78, 0x58, 0x67, 0x57,
    0x64, 0x56, 0x77, 0x57, 0x68, 0x66, 0x77, 0x75, 0x87, 0x79,
    0x67, 0x77, 0x89, 0x67, 0x88, 0x75, 0x68, 0x86, 0x55, 0x99,
    0x66, 0x77, 0x68, 0x79, 0x98, 0x96, 0x88, 0x66, 0x87, 0x86,
    0x79, 0x79, 0x69, 0x96, 0x67, 0xa7, 0x68, 0x67, 0x89, 0x85,
    0x88, 0x58, 0x77, 0x98, 0x83, 0x65, 0x98, 0x6b, 0x67, 0x85,
    0x85, 0x97, 0x86, 0x48, 0x77, 0x98, 0x57, 0xa9, 0x8b, 0x98,
    0x76, 0x75, 0x79, 0x9a, 0x56, 0x88, 0x97, 0x86, 0x44, 0x48,
    0x79, 0x96, 0x97, 0x79, 0xa7, 0x79, 0x55, 0x99, 0x8a, 0x7b,
    0x88, 0x69, 0x38, 0x85, 0x43, 0x7b, 0x45, 0x67, 0x76, 0x69,
    0x58, 0x95, 0x47, 0x78, 0x79, 0x7b, 0x89, 0xa5, 0x46, 0x64,
    0x72, 0xba, 0x57, 0x66, 0x85, 0x77, 0x48, 0x76, 0x67, 0x68,
    0x56, 0x89, 0x7a, 0xb4, 0x36, 0x67, 0x64, 0xa7, 0x67, 0x53,
    0x76, 0x64, 0x3a, 0x97, 0x68, 0x78, 0x37, 0x78, 0x5a, 0xb5,
    0x49, 0x47, 0x68, 0xb7, 0x69, 0x45, 0x74, 0x98, 0x48, 0x78,
    0x7b, 0x89, 0x54, 0x89, 0x99, 0xa7, 0x68, 0x47, 0x87, 0xb6,
    0x88, 0x69, 0x86, 0x96, 0x4a, 0x68, 0x8b, 0x87, 0x35, 0x84,
    0x78, 0x65, 0x57, 0x67, 0x67, 0x85, 0xa5, 0x77, 0x84, 0x96,
    0x59, 0x78, 0x98, 0x89, 0x67, 0x66, 0x74, 0xa4, 0xa5, 0x39,
    0x49, 0xb8, 0x55, 0x56, 0x85, 0x88, 0x76, 0x58, 0x56, 0x67,
    0x68, 0x75, 0x69, 0x95, 0x57, 0x55, 0x7a, 0xa6, 0x65, 0x78,
    0x58, 0x88, 0x86, 0x95, 0x57, 0x75, 0x87, 0x69, 0x79, 0x77,
    0x88, 0x86, 0x75, 0x89, 0x65, 0x98, 0x88, 0x78, 0x97, 0x98,
    0x89, 0x77, 0x88, 0x66, 0x68, 0x67, 0x75, 0x96, 0x75, 0x67,
    0x77, 0x88, 0x68, 0x56, 0x78, 0x79, 0x76, 0x88, 0x69, 0x57,
    0x57, 0x78, 0x88, 0x75, 0x57, 0x68, 0x87, 0x96, 0x85, 0x69,
    0x76, 0x56, 0x54, 0x77, 0x6a, 0x6a, 0x65, 0x99, 0x56, 0x76,
    0x54, 0x57, 0x66, 0xa3, 0x58, 0x38, 0x89, 0x99, 0x34, 0x87,
    0x49, 0x6c, 0x78, 0x97, 0x69, 0x68, 0x34, 0x79, 0x45, 0x74,
    0x54, 0x68, 0x7a, 0x76, 0x36, 0x65, 0x57, 0x6b, 0x6a, 0x97,
    0x47, 0x57, 0x43, 0x7a, 0x69, 0x93, 0x47, 0x77, 0x6a, 0x97,
    0x46, 0x66, 0x68, 0x8b, 0x49, 0x77, 0x88, 0x59, 0x54, 0x9a,
    0x77, 0x93, 0x86, 0x64, 0x48, 0x53, 0x66, 0x77, 0x45, 0x6a,
    0x86, 0x97, 0x58, 0x48, 0x75, 0x48, 0x98, 0x66, 0x57, 0x55,
    0x1b, 0x86, 0x96, 0x76, 0x35, 0x78, 0x86, 0x86, 0x68, 0x39,
    0x38, 0xb3, 0xb6, 0xb5, 0x97, 0x95, 0x3b, 0x95, 0x89, 0x77,
    0x36, 0x58, 0x7b, 0x77, 0x88, 0x3b, 0x67, 0x66, 0xb6, 0xa7,
    0x89, 0xa7, 0x5c, 0x66, 0x98, 0x7a, 0x64, 0x74, 0xa6, 0x95,
    0xa5, 0x78, 0x77, 0x54, 0x97, 0x85, 0x96, 0x59, 0x5a, 0x95,
    0x96, 0x89, 0x84, 0x67, 0x77, 0xb5, 0x97, 0x46, 0x5b, 0x87,
    0x76, 0x76, 0x85, 0x86, 0x78, 0x87, 0x87, 0x95, 0x68, 0x77,
    0x5a, 0x96, 0x59, 0x78, 0x88, 0x97, 0x77, 0x96, 0x68, 0x78,
    0x77, 0x99, 0x78, 0x67, 0x68, 0x65, 0x67, 0x76, 0x65, 0x75,
    0x77, 0x55, 0x78, 0x68, 0x68, 0x68, 0x77, 0x87, 0x89, 0x69,
    0x76, 0x68, 0x76, 0x85, 0x66, 0x66, 0x76, 0x87, 0x66, 0x99,
    0x77, 0x57, 0x87, 0x77, 0x77, 0x87, 0x57, 0x56, 0x98, 0x79,
    0x66, 0x85, 0x65, 0x66, 0x56, 0x65, 0x59, 0x6a, 0x88, 0x75,
    0x65, 0x68, 0x68, 0x9a, 0x59, 0x65, 0x87, 0x86, 0x54, 0x86,
    0x66, 0x74, 0x47, 0x4a, 0x77, 0x68, 0x44, 0x78, 0x8a, 0x7b,
    0x58, 0x66, 0x57, 0x56, 0x56, 0x9a, 0x48, 0x96, 0x38, 0x69,
    0x47, 0x66, 0x45, 0x56, 0x79, 0x7c, 0x4a, 0x97, 0x67, 0x55,
    0x53, 0x69, 0x66, 0x77, 0x54, 0x57, 0x6a, 0x66, 0x67, 0x75,
    0x57, 0x9b, 0x46, 0x86, 0x58, 0x49, 0x65, 0x3a, 0x86, 0x86,
    0x75, 0x66, 0x69, 0x56, 0x64, 0x63, 0x99, 0x7b, 0xa8, 0x77,
    0x66, 0xa9, 0x74, 0x29, 0xc9, 0xba, 0xa9, 0x95, 0x59, 0x64,
    0x97, 0x97, 0x87, 0x88, 0xa7, 0x96, 0x77, 0x67, 0x67, 0x86,
    0xb7, 0xb7, 0xa8, 0x68, 0x6b, 0x87, 0x83, 0x8b, 0x77, 0x68,
    0xa8, 0xb6, 0x86, 0x5a, 0x55, 0x88, 0xa8, 0x78, 0xb8, 0x87,
    0x69, 0x77, 0xaa, 0x8a, 0x96, 0x57, 0xa6, 0xa5, 0x99, 0x89,
    0x99, 0x98, 0x96, 0x77, 0x86, 0x69, 0x55, 0x68, 0x96, 0x67,
    0x78, 0x78, 0x76, 0x78, 0xa9, 0x79, 0x78, 0x88, 0x98, 0x88,
    0x86, 0x77, 0x77, 0x76, 0x76, 0x98, 0x77, 0x77, 0x88, 0x86,
    0x98, 0x77, 0x69, 0xaa, 0x75, 0x86, 0x86, 0x97, 0x89, 0x89,
    0x76, 0x87, 0x87, 0x58, 0x87, 0x88, 0x67, 0x76, 0x68, 0x97,
    0x66, 0x95, 0x78, 0x67, 0x99, 0x87, 0x79, 0x95, 0x99, 0x65,
    0x77, 0x58, 0x77, 0x89, 0x97, 0x97, 0x87, 0x86, 0x65, 0x57,
    0x68, 0x66, 0x65, 0x87, 0x97, 0x58, 0x99, 0x87, 0x68, 0x67,
    0x66, 0x75, 0x65, 0x74, 0x57, 0x46, 0x44, 0x55, 0x84, 0x56,
    0x66, 0x77, 0x57, 0x99, 0x77, 0x56, 0x56, 0x86, 0x76, 0x96,
    0x46, 0x57, 0x65, 0x78, 0x77, 0x67, 0x57, 0x79, 0x55, 0x59,
    0x87, 0x55, 0x47, 0x88, 0x58, 0xa4, 0x47, 0x57, 0x75, 0x59,
    0x54, 0x87, 0x59, 0x79, 0x37, 0x47, 0x46, 0x76, 0x73, 0x5a,
    0x57, 0x79, 0x78, 0x68, 0x97, 0x86, 0x56, 0x64, 0x89, 0x88,
    0x48, 0x78, 0x44, 0x88, 0x83, 0x39, 0x65, 0x4a, 0x97, 0x79,
    0x95, 0x3a, 0x85, 0x82, 0xa8, 0x57, 0x94, 0x74, 0x64, 0xa4,
    0x93, 0x28, 0xa6, 0x88, 0xa4, 0x55, 0xa8, 0x74, 0xa5, 0x97,
    0xc6, 0x89, 0xb8, 0xb8, 0x78, 0xa7, 0x78, 0x6a, 0xa8, 0x65,
    0xb5, 0x77, 0x79, 0x64, 0xa4, 0x96, 0x56, 0x6a, 0xa9, 0xb5,
    0x59, 0x89, 0x76, 0x79, 0xa6, 0xba, 0x97, 0x79, 0x9a, 0x75,
    0xa9, 0x98, 0x8a, 0x6b, 0x9a, 0xb6, 0x78, 0x9a, 0x98, 0x8b,
    0x86, 0x79, 0x77, 0x58, 0x57, 0x97, 0x87, 0x57, 0x56, 0x57,
    0x77, 0x96, 0xa9, 0x66, 0x8a, 0x77, 0x67, 0x56, 0x95, 0x85,
    0x65, 0x85, 0x67, 0x99, 0x76, 0x76, 0x89, 0xa8, 0x78, 0x89,
    0x89, 0x96, 0x87, 0x77, 0x68, 0x76, 0x99, 0x95, 0x76, 0x67,
    0x86, 0x66, 0x88, 0x77, 0x97, 0x87, 0x66, 0x87, 0x67, 0x87,
    0x66, 0x56, 0x95, 0x68, 0x69, 0x78, 0x69, 0x76, 0x86, 0x56,
    0x65, 0x67, 0x96, 0x65, 0x76, 0x97, 0x75, 0x86, 0x68, 0x66,
    0xa8, 0x88, 0x68, 0x87, 0x86, 0x78, 0x78, 0x78, 0x89, 0x99,
    0x76, 0x78, 0x57, 0x47, 0x76, 0x65, 0x75, 0x88, 0x57, 0x66,
    0x78, 0x77, 0x69, 0x55, 0x8a, 0x67, 0x88, 0xa7, 0x5a, 0x78,
    0x75, 0x79, 0x96, 0x86, 0x6a, 0x86, 0x67, 0x67, 0x79, 0x58,
    0x57, 0x78, 0x49, 0xa4, 0x4a, 0x57, 0x55, 0xa9, 0x44, 0x65,
    0x68, 0x96, 0x35, 0x58, 0x57, 0x56, 0x64, 0x48, 0x77, 0xa9,
    0x48, 0xa8, 0xb6, 0x59, 0x56, 0x98, 0x9a, 0x65, 0x57, 0x39,
    0x84, 0xa7, 0x76, 0x59, 0x57, 0x48, 0x86, 0x58, 0xa6, 0x78,
    0x42, 0x86, 0xb7, 0x97, 0x74, 0x69, 0x56, 0xb5, 0x63, 0x48,
    0x89, 0x8b, 0x76, 0x56, 0x69, 0x98, 0x99, 0x64, 0x77, 0x8b,
    0xa9, 0xb7, 0x86, 0xa8, 0x87, 0x59, 0x98, 0x78, 0xa7, 0x86,
    0x79, 0x77, 0x85, 0x85, 0x54, 0x89, 0xa6, 0x77, 0x98, 0x89,
    0x77, 0x47, 0x66, 0x97, 0x87, 0x65, 0x77, 0x75, 0x86, 0x86,
    0x96, 0x99, 0x68, 0x88, 0x88, 0x79, 0x74, 0x7a, 0x68, 0x68,
    0x86, 0x77, 0x67, 0x88, 0x74, 0x86, 0x66, 0x97, 0x69, 0x75,
    0x88, 0x66, 0x69, 0x67, 0x69, 0x64, 0x67, 0x66, 0x78, 0x69,
    0x88, 0x76, 0x65, 0x87, 0x77, 0x97, 0x78, 0x88, 0x87, 0x97,
    0x86, 0x57, 0x76, 0x78, 0x88, 0x88, 0x87, 0x68, 0x96, 0x68,
    0x87, 0x65, 0x76, 0x75, 0x86, 0x88, 0x98, 0x66, 0x98, 0x68,
    0x66, 0x96, 0x8a, 0x97, 0x58, 0x58, 0x55, 0x65, 0x68, 0x65,
    0x77, 0x68, 0x78, 0x56, 0x97, 0x86, 0x87, 0x48, 0x96, 0x57,
    0x99, 0x65, 0x95, 0x95, 0x67, 0x75, 0x59, 0x55, 0x76, 0x74,
    0x97, 0x69, 0x85, 0x65, 0x98, 0x95, 0x97, 0x78, 0x57, 0x78,
    0x59, 0xa6, 0x75, 0x96, 0x98, 0x78, 0x97, 0x87, 0x68, 0x66,
    0x99, 0x74, 0x59, 0x84, 0x96, 0x38, 0x88, 0x69, 0x57, 0x56,
    0x98, 0xa4, 0x87, 0x96, 0xa6, 0x78, 0x6a, 0x65, 0x49, 0x95,
    0x86, 0x39, 0x98, 0x77, 0x87, 0x56, 0x98, 0xa3, 0x57, 0x85,
    0x97, 0x68, 0x54, 0x76, 0x79, 0x8a, 0x96, 0x88, 0x96, 0x88,
    0x45, 0x46, 0x86, 0xa8, 0x47, 0x55, 0x69, 0x76, 0x53, 0x68,
    0x76, 0x69, 0x76, 0x77, 0x79, 0x99, 0x46, 0x65, 0x46, 0x79,
    0x76, 0x84, 0x68, 0x86, 0x6a, 0x59, 0x77, 0x59, 0x69, 0x86,
    0x47, 0x78, 0x95, 0x87, 0x39, 0x69, 0x87, 0x86, 0x96, 0x85,
    0x66, 0x66, 0x95, 0x86, 0x88, 0x96, 0x65, 0xa6, 0x96, 0x77,
    0x86, 0x89, 0x96, 0x77, 0x74, 0x78, 0x87, 0x95, 0x69, 0x8a,
    0x57, 0x69, 0x75, 0x95, 0x66, 0x67, 0x45, 0x75, 0x79, 0x78,
    0x64, 0x77, 0x86, 0x78, 0x69, 0x7a, 0x66, 0x88, 0x75, 0x98,
    0x59, 0x86, 0x76, 0x75, 0x57, 0x66, 0x68, 0x67, 0x58, 0x78,
    0x79, 0x88, 0x79, 0x57, 0x58, 0x97, 0x58, 0x86, 0x87, 0x79,
    0x57, 0x89, 0x69, 0x98, 0x88, 0x87, 0x77, 0x75, 0x95, 0x66,
    0x67, 0x68, 0x68, 0x86, 0x87, 0x76, 0x88, 0x68, 0x79, 0x96,
    0x78, 0x85, 0x76, 0x57, 0x87, 0x85, 0x57, 0x65, 0x88, 0x58,
    0x87, 0x97, 0x98, 0x77, 0x85, 0x57, 0x65, 0x57, 0x99, 0x88,
    0x87, 0x76, 0x88, 0x98, 0x75, 0x76, 0x78, 0x75, 0x68, 0x75,
    0x78, 0xa7, 0x5b, 0x77, 0x46, 0x85, 0x77, 0x57, 0x55, 0x99,
    0x65, 0x58, 0x78, 0x89, 0x76, 0x69, 0x67, 0x59, 0x86, 0x86,
    0x69, 0x58, 0x96, 0x67, 0x77, 0x77, 0x67, 0x95, 0x58, 0x68,
    0xa5, 0x86, 0x57, 0x57, 0x47, 0x59, 0x84, 0x78, 0x99, 0x57,
    0x76, 0x67, 0x96, 0x75, 0x96, 0xa7, 0x78, 0x66, 0x38, 0x87,
    0x66, 0x78, 0x38, 0x77, 0x98, 0x97, 0x78, 0x76, 0x5a, 0x85,
    0x65, 0xa4, 0x76, 0x54, 0x45, 0x67, 0x69, 0x9a, 0x54, 0x95,
    0x67, 0x97, 0x89, 0x56, 0x77, 0xb7, 0x48, 0x87, 0x57, 0x63,
    0x46, 0x95, 0x58, 0x79, 0x56, 0x78, 0x69, 0x37, 0x77, 0x45,
    0x77, 0x89, 0x46, 0x58, 0x59, 0x85, 0x88, 0x89, 0x77, 0x56,
    0x55, 0x64, 0x67, 0x3a, 0x76, 0x65, 0x7a, 0xa7, 0x47, 0x57,
    0x59, 0x87, 0x77, 0x96, 0x55, 0x68, 0x98, 0x58, 0x64, 0x67,
    0x65, 0x74, 0x76, 0x67, 0x49, 0x46, 0x66, 0x98, 0x77, 0x77,
    0x86, 0x96, 0x87, 0x69, 0x59, 0x56, 0x79, 0x87, 0x79, 0x87,
    0x58, 0x87, 0x68, 0x85, 0x66, 0x86, 0x88, 0x74, 0x67, 0x76,
    0x68, 0x47, 0x58, 0x65, 0x76, 0x78, 0x57, 0x57, 0x87, 0x68,
    0x69, 0x76, 0x95, 0x87, 0x86, 0x86, 0x65, 0x88, 0x56, 0x88,
    0x57, 0x58, 0x66, 0x95, 0x78, 0x66, 0x67, 0x66, 0x89, 0x88,
    0x65, 0x77, 0x97, 0x96, 0x68, 0x67, 0x75, 0x69, 0x98, 0x59,
    0x95, 0x77, 0x58, 0x76, 0x79, 0x76, 0x77, 0x67, 0x78, 0x86,
    0x96, 0x79, 0x88, 0x88, 0x78, 0x89, 0x96, 0x65, 0x68, 0x66,
    0x58, 0x66, 0x87, 0x75, 0x76, 0x85, 0x97, 0x59, 0x75, 0x77,
    0x96, 0x86, 0x66, 0x65, 0x47, 0x65, 0x45, 0x8b, 0x66, 0x59,
    0x66, 0xa6, 0x87, 0x77, 0x57, 0x97, 0x87, 0x76, 0x65, 0x77,
    0x69, 0xa5, 0x5b, 0x78, 0x47, 0x59, 0x5a, 0x75, 0x56, 0x68,
    0x85, 0x87, 0x75, 0x75, 0x96, 0x96, 0x78, 0x65, 0x98, 0x66,
    0x59, 0x59, 0x67, 0x85, 0x75, 0x74, 0x78, 0x76, 0x39, 0x59,
    0x48, 0x98, 0x86, 0x66, 0x9b, 0x56, 0x89, 0x88, 0x89, 0xa8,
    0x88, 0x86, 0x89, 0xb7, 0x45, 0x57, 0x47, 0x69, 0x57, 0x66,
    0x68, 0x67, 0x57, 0x57, 0x68, 0x78, 0x77, 0x77, 0x67, 0x76,
    0x55, 0x39, 0x49, 0x96, 0x88, 0x77, 0xa9, 0x76, 0x77, 0x87,
    0x79, 0x69, 0x86, 0x74, 0x79, 0x96, 0x59, 0x75, 0x49, 0x85,
    0x55, 0x78, 0x68, 0x87, 0x49, 0x63, 0x68, 0x56, 0x68, 0x46,
    0x77, 0x74, 0x68, 0x58, 0x59, 0x77, 0x78, 0x78, 0x57, 0x57,
    0x49, 0x66, 0x55, 0x47, 0x98, 0x86, 0x87, 0x46, 0x86, 0x78,
    0x57, 0x97, 0x88, 0x79, 0x77, 0x76, 0x87, 0x77, 0x87, 0x46,
    0x85, 0x87, 0x87, 0x77, 0x58, 0x75, 0x86, 0x66, 0x66, 0x97,
    0x77, 0x77, 0x88, 0x77, 0x56, 0x55, 0x66, 0x85, 0x86, 0x75,
    0x59, 0x56, 0x88, 0x67, 0x86, 0x98, 0x99, 0x87, 0x78, 0x99,
    0x68, 0x88, 0x85, 0x88, 0x99, 0x79, 0x56, 0x98, 0x77, 0x89,
    0xa8, 0x98, 0x78, 0x69, 0x6a, 0x77, 0x89, 0x79, 0x87, 0x98,
    0x87, 0x79, 0x87, 0x97, 0x65, 0x99, 0xaa, 0x86, 0x79, 0x89,
    0x8a, 0x68, 0x86, 0x95, 0x79, 0xa8, 0x76, 0x89, 0x76, 0x79,
    0xa7, 0x69, 0x8a, 0x86, 0x86, 0x98, 0x86, 0x88, 0x97, 0x95,
    0x69, 0x78, 0x68, 0x9a, 0x65, 0x98, 0x87, 0x66, 0x59, 0x78,
    0x78, 0x87, 0x68, 0x86, 0x89, 0x77, 0x88, 0x56, 0x77, 0x87,
    0x67, 0x76, 0x78, 0x75, 0x58, 0x77, 0x68, 0x68, 0x66, 0x68,
    0x97, 0x95, 0x86, 0x66, 0x79, 0x78, 0x99, 0x68, 0x85, 0x96,
    0x79, 0x87, 0x89, 0x57, 0x68, 0x76, 0x88, 0x88, 0x87, 0x85,
    0x77, 0x87, 0x98, 0x58, 0x77, 0x66, 0x57, 0x98, 0x97, 0x78,
    0x75, 0x55, 0x76, 0x77, 0x79, 0x96, 0x79, 0x77, 0x67, 0x89,
    0x75, 0x67, 0x6a, 0x77, 0x66, 0x79, 0x99, 0x96, 0x77, 0x78,
    0x68, 0x56, 0x67, 0x98, 0x99, 0x77, 0x68, 0x76, 0x77, 0x69,
    0x75, 0x77, 0x86, 0x87, 0x66, 0x87, 0x68, 0x56, 0x78, 0x87,
    0x98, 0x66, 0x65, 0x98, 0x78, 0x78, 0x77, 0x85, 0x97, 0x77,
    0x75, 0x58, 0x76, 0x55, 0x69, 0x86, 0x76, 0x96, 0x88, 0x67,
    0x69, 0x86, 0x77, 0x67, 0x57, 0x96, 0x79, 0x77, 0x88, 0x65,
    0x78, 0x76, 0x78, 0x68, 0x76, 0x75, 0x78, 0x86, 0x77, 0x96,
    0x56, 0x69, 0x65, 0x57, 0x96, 0x78, 0x86, 0x67, 0x68, 0x76,
    0x98, 0x98, 0x97, 0x65, 0x56, 0x77, 0x75, 0x55, 0x95, 0x56,
    0x89, 0x66, 0x75, 0x77, 0x68, 0x65, 0x66, 0x56, 0x67, 0x96,
    0x68, 0x67, 0x86, 0x66, 0x67, 0x78, 0x75, 0x58, 0x65, 0x85,
    0x68, 0x66, 0x86, 0x78, 0x57, 0x76, 0x58, 0x56, 0x68, 0x78,
    0x55, 0x98, 0x88, 0x68, 0x87, 0x56, 0x66, 0x55, 0x65, 0x68,
    0x98, 0x98, 0x66, 0x96, 0x66, 0x95, 0x77, 0x89, 0x77, 0x68,
    0x95, 0x98, 0x67, 0x98, 0x88, 0x56, 0x97, 0x87, 0x55, 0x77,
    0x67, 0x58, 0x87, 0x88, 0x77, 0x86, 0x76, 0x79, 0x76, 0x79,
    0x88, 0x87, 0x78, 0x79, 0x69, 0x56, 0x67, 0x95, 0x77, 0x87,
    0x88, 0x85, 0x75, 0x88, 0x58, 0x66, 0x78, 0x66, 0x78, 0x87,
    0x88, 0x86, 0x87, 0x58, 0x85, 0x67, 0x88, 0x57, 0x67, 0x79,
    0x89, 0x78, 0x59, 0x78, 0x86, 0x68, 0x77, 0x69, 0x86, 0x68,
    0x87, 0x86, 0x76, 0x77, 0x58, 0x95, 0x95, 0x89, 0x89, 0x68,
    0x97, 0x89, 0x76, 0x68, 0x55, 0x87, 0x79, 0x77, 0x97, 0x99,
    0x57, 0x78, 0x89, 0x77, 0x86, 0x57, 0x56, 0x78, 0x95, 0x56,
    0x97, 0x97, 0x78, 0x56, 0x88, 0x76, 0x85, 0x67, 0x57, 0x75,
    0x65, 0x65, 0x87, 0x97, 0x67, 0x85, 0x56, 0x79, 0x78, 0x89,
    0x78, 0x75, 0x56, 0x86, 0x65, 0x78, 0x58, 0x65, 0x85, 0x76,
    0x95, 0x88, 0x58, 0x55, 0x79, 0x55, 0x58, 0x88, 0x66, 0x66,
    0x68, 0x77, 0x76, 0x87, 0x67, 0x69, 0x97, 0x87, 0x88, 0x56,
    0x78, 0x67, 0x85, 0x56, 0x56, 0x89, 0x66, 0x68, 0x67, 0x88,
    0x97, 0x65, 0x77, 0x68, 0x87, 0x76, 0x88, 0x98, 0x66, 0x75,
    0x77, 0x68, 0x99, 0x55, 0x76, 0x96, 0x58, 0x78, 0x57, 0x56,
    0x78, 0x75, 0x79, 0x99, 0x77, 0x97, 0x86, 0x66, 0x66, 0x77,
    0x77, 0x65, 0x68, 0x85, 0x75, 0x96, 0x57, 0x78, 0x88, 0x87,
    0x68, 0x77, 0x66, 0x55, 0x57, 0x86, 0x66, 0x78, 0x85, 0x87,
    0x76, 0x56, 0x68, 0x68, 0x67, 0x88, 0x75, 0x58, 0x65, 0x65,
    0x99, 0x57, 0x89, 0x77, 0x85, 0x88, 0x98, 0x55, 0x67, 0x87,
    0x58, 0x79, 0x68, 0x86, 0x67, 0x56, 0x99, 0x98, 0x58, 0x75,
    0x97, 0x98, 0x6a, 0x87, 0x85, 0x65, 0x66, 0x78, 0x68, 0x56,
    0x97, 0x85, 0x67, 0x78, 0x78, 0x99, 0x89, 0x68, 0x99, 0x69,
    0x76, 0x86, 0x96, 0x77, 0x97, 0x86, 0x69, 0x68, 0x96, 0x85,
    0x67, 0x85, 0x89, 0x87, 0x79, 0x77, 0x67, 0x77, 0x98, 0x66,
    0x56, 0x67, 0x69, 0x98, 0x76, 0x77, 0x66, 0x56, 0x68, 0x69,
    0x77, 0x77, 0x98, 0x69, 0x87, 0x96, 0x98, 0x89, 0x58, 0x85,
    0x56, 0x68, 0x89, 0x78, 0x68, 0x98, 0x99, 0x89, 0x97, 0x96,
    0x56, 0x97, 0x95, 0x77, 0x59, 0x86, 0x98, 0x88, 0x67, 0x69,
    0x57, 0x66, 0x67, 0x76, 0x87, 0x86, 0x78, 0x89, 0x76, 0x87,
    0x77, 0x89, 0x76, 0x68, 0x89, 0x75, 0x68, 0x87, 0x66, 0x99,
    0x97, 0x66, 0x77, 0x87, 0x68, 0x69, 0x88, 0x78, 0x78, 0x65,
    0x86, 0x57, 0x68, 0x88, 0x85, 0x76, 0x78, 0x58, 0x79, 0x87,
    0x68, 0x86, 0x78, 0x68, 0x78, 0x59, 0x86, 0x66, 0x99, 0x95,
    0x95, 0x69, 0x96, 0x77, 0x78, 0x98, 0x67, 0x77, 0x56, 0x77,
    0x66, 0x67, 0x85, 0x65, 0x77, 0x68, 0x96, 0x67, 0x58, 0x66,
    0x58, 0x75, 0x87, 0x57, 0x76, 0x56, 0x76, 0x75, 0x77, 0x68,
    0x57, 0x67, 0x88, 0x58, 0x87, 0x67, 0x65, 0x75, 0x65, 0x76,
    0x75, 0x77, 0x89, 0x88, 0x86, 0x66, 0x67, 0x89, 0x76, 0x77,
    0x88, 0x69, 0x56, 0x68, 0x57, 0x66, 0x86, 0x89, 0x97, 0x79,
    0x65, 0x87, 0x67, 0x78, 0x88, 0x54, 0x85, 0x88, 0x86, 0x87,
    0x78, 0x79, 0x98, 0x86, 0x98, 0x69, 0x69, 0x78, 0x77, 0x79,
    0x78, 0x65, 0x96, 0x58, 0x87, 0x76, 0x88, 0x77, 0x56, 0x89,
    0x89, 0x78, 0x95, 0x78, 0x87, 0x77, 0x75, 0x86, 0x87, 0x99,
    0x87, 0x96, 0x66, 0x67, 0x57, 0x69, 0x57, 0x56, 0x85, 0x79,
    0x78, 0x88, 0x87, 0x56, 0x99, 0x98, 0x58, 0x67, 0x89, 0x85,
    0x86, 0x69, 0x59, 0x57, 0x96, 0x66, 0x88, 0x78, 0x67, 0x76,
    0x78, 0x59, 0x88, 0x95, 0x77, 0x79, 0x76, 0x79, 0x65, 0x98,
    0x86, 0x77, 0x78, 0x78, 0x56, 0x67, 0x88, 0x69, 0x68, 0x68,
    0x58, 0x56, 0x88, 0x86, 0x68, 0x86, 0x65, 0x65, 0x78, 0x78,
    0x66, 0x97, 0x89, 0x59, 0x98, 0x69, 0x88, 0x87, 0x75, 0x79,
    0x58, 0x67, 0x65, 0x86, 0x98, 0x95, 0x79, 0x69, 0x88, 0x87,
    0x89, 0x77, 0x76, 0x69, 0x75, 0x99, 0x68, 0x57, 0x58, 0x57,
    0x86, 0x88, 0x78, 0x99, 0x77, 0x89, 0x78, 0x85, 0x67, 0x75,
    0x65, 0x98, 0x78, 0x66, 0x66, 0x87, 0x65, 0x67, 0x76, 0x68,
    0x58, 0x86, 0x67, 0x66, 0x87, 0x85, 0x56, 0x69, 0x87, 0x56,
    0x77, 0x58, 0x67, 0x68, 0x96, 0x57, 0x66, 0x86, 0x88, 0x67,
    0x89, 0x67, 0x77, 0x67, 0x88, 0x65, 0x97, 0x86, 0x58, 0x88,
    0x85, 0x69, 0x75, 0x58, 0x88, 0x57, 0x87, 0x55, 0x77, 0x75,
    0x89, 0x57, 0x78, 0x68, 0x78, 0x78, 0x98, 0x56, 0x58, 0x85,
    0x58, 0x77, 0x76, 0x95, 0x96, 0x98, 0x86, 0x79, 0x66, 0x97,
    0xa9, 0x96, 0x69, 0x94, 0x89, 0x98, 0x77, 0x77, 0x68, 0x76,
    0xa7, 0x77, 0x77, 0x66, 0x87, 0x69, 0x77, 0x96, 0x66, 0x88,
    0x78, 0x88, 0x69, 0xa8, 0x97, 0x66, 0x79, 0x98, 0x67, 0x78,
    0x76, 0x57, 0x97, 0x68, 0x85, 0x67, 0x89, 0x77, 0x59, 0x75,
    0x65, 0x85, 0x68, 0x69, 0x59, 0x76, 0x65, 0x67, 0x96, 0x88,
    0x75, 0x67, 0x77, 0x97, 0x58, 0x59, 0x65, 0x57, 0x75, 0x89,
    0x46, 0x69, 0x66, 0x88, 0x97, 0x67, 0x56, 0x67, 0x78, 0x86,
    0x97, 0x87, 0x88, 0xa6, 0x97, 0x88, 0x76, 0x77, 0x66, 0x58,
    0x86, 0x75, 0x85, 0x77, 0x78, 0x78, 0x88, 0x67, 0x78, 0x87,
    0x77, 0x78, 0x76, 0x65, 0x76, 0x99, 0x55, 0x88, 0x95, 0x87,
    0x79, 0x85, 0x67, 0x85, 0x65, 0x57, 0x66, 0x68, 0x69, 0x87,
    0x57, 0x66, 0x58, 0x96, 0x69, 0x77, 0x75, 0x76, 0x56, 0x76,
    0x86, 0x96, 0x58, 0x58, 0x56, 0x96, 0x75, 0x95, 0x77, 0x79,
    0x86, 0x88, 0x87, 0x78, 0x98, 0x78, 0x88, 0x67, 0x97, 0x67,
    0x89, 0x89, 0x66, 0x57, 0x86, 0x75, 0x86, 0x76, 0x76, 0x68,
    0x76, 0x78, 0x58, 0x56, 0x65, 0x67, 0x68, 0x66, 0x66, 0x76,
    0x87, 0x55, 0x58, 0x85, 0x86, 0x79, 0x87, 0x87, 0x78, 0x89,
    0x67, 0x87, 0x88, 0x56, 0x75, 0x76, 0x78, 0x97, 0x69, 0x67,
    0x69, 0x68, 0x85, 0x86, 0x65, 0x77, 0x75, 0x86, 0x79, 0x66,
    0x97, 0x67, 0x75, 0x76, 0x98, 0x88, 0x85, 0x78, 0x97, 0x66,
    0x65, 0x97, 0x88, 0x57, 0x77, 0x88, 0x86, 0x98, 0x87, 0x85,
    0x65, 0x87, 0x86, 0x75, 0x75, 0x69, 0x87, 0x56, 0x89, 0x77,
    0x77, 0x76, 0x59, 0x59, 0x78, 0x78, 0x87, 0x89, 0x75, 0x78,
    0x68, 0x85, 0x57, 0x66, 0x78, 0xa8, 0x78, 0x75, 0x79, 0x78,
    0x84, 0x85, 0x75, 0x74, 0x67, 0x68, 0x47, 0x66, 0x78, 0x65,
    0x87, 0x87, 0x59, 0x67, 0x58, 0x67, 0x84, 0x66, 0x77, 0x85,
    0x58, 0x78, 0x65, 0x45, 0x66, 0x57, 0x75, 0x78, 0x48, 0x45,
    0x56, 0x76, 0x87, 0x86, 0x49, 0x87, 0x77, 0x98, 0x85, 0x59,
    0x45, 0x86, 0x64, 0x48, 0x48, 0x86, 0x55, 0x85, 0x96, 0x87,
    0x76, 0x67, 0x97, 0x87, 0x56, 0x78, 0x68, 0x78, 0x87, 0x67,
    0x67, 0x88, 0x98, 0x67, 0x56, 0x76, 0x89, 0x67, 0x78, 0x86,
    0x66, 0x87, 0x76, 0x98, 0x75, 0x86, 0x66, 0x89, 0x87, 0x76,
    0x86, 0x76, 0x76, 0x88, 0x59, 0x77, 0x57, 0x76, 0x85, 0x86,
    0x78, 0x85, 0x57, 0x85, 0x66, 0x88, 0x69, 0x87, 0x97, 0x89,
    0x78, 0x87, 0x75, 0x96, 0x68, 0x75, 0x88, 0x77, 0x86, 0x78,
    0x58, 0x78, 0x77, 0x89, 0x86, 0x58, 0x78, 0x97, 0x88, 0x86,
    0x97, 0x76, 0x99, 0x78, 0x98, 0x88, 0x87, 0x88, 0x55, 0x65,
    0x75, 0x79, 0x88, 0x67, 0x88, 0x98, 0x79, 0x65, 0x88, 0x57,
    0x87, 0x96, 0x98, 0x88, 0x88, 0x98, 0x66, 0x77, 0x67, 0x98,
    0x69, 0x75, 0x78, 0x56, 0x66, 0x67, 0x87, 0x77, 0x77, 0x75,
    0x79, 0x66, 0x68, 0x76, 0x89, 0x59, 0x85, 0x95, 0x87, 0x66,
    0x68, 0x78, 0x66, 0x6a, 0x57, 0x97, 0x88, 0x57, 0x88, 0x89,
    0x68, 0x89, 0x79, 0x75, 0x97, 0x78, 0x96, 0x77, 0x76, 0x85,
    0x76, 0x77, 0x85, 0x78, 0x75, 0x69, 0x67, 0x87, 0x69, 0x67,
    0x67, 0x76, 0x88, 0x97, 0x69, 0x76, 0x59, 0x86, 0x67, 0x79,
    0x55, 0x67, 0x55, 0x85, 0x55, 0x48, 0x65, 0x55, 0x75, 0x67,
    0x77, 0x76, 0x59, 0x86, 0x85, 0x55, 0x49, 0x68, 0x77, 0x57,
    0x58, 0x39, 0x87, 0x45, 0x87, 0x74, 0x78, 0x85, 0x59, 0x78,
    0x75, 0x89, 0x47, 0x55, 0x85, 0x56, 0x57, 0x49, 0x76, 0x75,
    0x58, 0x75, 0x65, 0x78, 0x68, 0x87, 0x76, 0x66, 0x69, 0x88,
    0x86, 0x95, 0x58, 0x77, 0x66, 0x77, 0x95, 0x76, 0x48, 0x47,
    0x67, 0x97, 0x76, 0x96, 0x55, 0x75, 0x69, 0x76, 0x77, 0x78,
    0x58, 0x76, 0x65, 0x57, 0x87, 0x76, 0x88, 0x89, 0x58, 0x85,
    0x75, 0x65, 0x76, 0x65, 0x95, 0x68, 0x85, 0x79, 0x65, 0x67,
    0x69, 0x78, 0x77, 0x66, 0x76, 0x68, 0x97, 0x75, 0x87, 0x86,
    0x65, 0x66, 0x87, 0x89, 0x86, 0x98, 0x85, 0x88, 0x77, 0x96,
    0x69, 0x96, 0x77, 0x55, 0x68, 0x89, 0x59, 0x87, 0x96, 0x67,
    0x95, 0x98, 0x68, 0x78, 0x56, 0x66, 0x57, 0x57, 0x77, 0x66,
    0x78, 0x57, 0x58, 0x79, 0x59, 0x77, 0x77, 0x56, 0x55, 0x84,
    0x55, 0x56, 0x85, 0x79, 0x88, 0x78, 0x75, 0x66, 0x76, 0x87,
    0x76, 0x57, 0x67, 0x76, 0x66, 0x57, 0x77, 0x66, 0x98, 0x65,
    0x79, 0x88, 0x76, 0x69, 0x67, 0x76, 0x89, 0x77, 0x88, 0x87,
    0x55, 0x56, 0x86, 0x58, 0x67, 0x57, 0x75, 0x97, 0x98, 0x78,
    0x56, 0x77, 0x67, 0x75, 0x88, 0x66, 0x78, 0x88, 0x77, 0x97,
    0x95, 0x57, 0x88, 0x69, 0x67, 0x67, 0x58, 0x65, 0x88, 0x75,
    0x98, 0x96, 0x77, 0x58, 0x56, 0x76, 0x88, 0x89, 0x8a, 0x85,
    0x66, 0x86, 0x89, 0x65, 0x55, 0x78, 0x85, 0x57, 0x77, 0x88,
    0x77, 0x77, 0x67, 0x86, 0x77, 0x67, 0x66, 0x68, 0x57, 0x67,
    0x76, 0x75, 0x86, 0x85, 0x76, 0x57, 0x89, 0x75, 0x67, 0x79,
    0x57, 0x66, 0x56, 0x58, 0x87, 0x56, 0x75, 0x75, 0x68, 0x66,
    0x68, 0x75, 0x68, 0x77, 0x65, 0x67, 0x75, 0x57, 0x57, 0x67,
    0x69, 0x57, 0x78, 0x55, 0x76, 0x67, 0x86, 0x75, 0x65, 0x69,
    0x65, 0x98, 0x75, 0x87, 0x56, 0x75, 0x76, 0x75, 0x68, 0x67,
    0x87, 0x67, 0x55, 0x47, 0x86, 0x77, 0x86, 0x76, 0x78, 0x76,
    0x76, 0x65, 0x98, 0x67, 0x87, 0x88, 0x75, 0x67, 0x98, 0x59,
    0x65, 0x67, 0x69, 0x67, 0x66, 0x76, 0x89, 0x88, 0x59, 0x66,
    0x57, 0x68, 0x78, 0x68, 0x88, 0x65, 0x66, 0x67, 0x78, 0x77,
    0x76, 0x75, 0x86, 0x85, 0x77, 0x88, 0x86, 0x95, 0x75, 0x79,
    0x96, 0x77, 0x67, 0x56, 0x78, 0x96, 0x65, 0x85, 0x58, 0x98,
    0x77, 0x79, 0x76, 0x68, 0x65, 0x76, 0x67, 0x86, 0x75, 0x88,
    0x56, 0x79, 0x68, 0x79, 0x69, 0x88, 0x87, 0x57, 0x79, 0x85,
    0x66, 0x66, 0x76, 0x77, 0x58, 0x56, 0x65, 0x66, 0x79, 0x86,
    0x66, 0x76, 0x55, 0x57, 0x66, 0x66, 0x65, 0x86, 0x86, 0x65,
    0x57, 0x78, 0x76, 0x67, 0x95, 0x78, 0x67, 0x56, 0x56, 0x57,
    0x76, 0x76, 0x56, 0x67, 0x58, 0x55, 0x57, 0x78, 0x64, 0x78,
    0x55, 0x86, 0x88, 0x79, 0x77, 0x55, 0x87, 0x77, 0x58, 0x85,
    0x65, 0x86, 0x87, 0x78, 0x77, 0x69, 0x58, 0x66, 0x59, 0x59,
    0x57, 0x56, 0x87, 0x76, 0x98, 0x86, 0x87, 0x68, 0x89, 0x96,
    0x55, 0x56, 0x78, 0x87, 0x79, 0x76, 0x68, 0x65, 0x88, 0x86,
    0x5a, 0x96, 0x76, 0x57, 0x58, 0x86, 0x78, 0x78, 0x77, 0x88,
    0x76, 0x55, 0x56, 0x78, 0x88, 0x95, 0x97, 0x77, 0x55, 0x78,
    0x59, 0x77, 0x99, 0x57, 0x87, 0x97, 0x67, 0x55, 0x57, 0x67,
    0x68, 0x66, 0x79, 0x76, 0x66, 0x85, 0x69, 0x85, 0x56, 0x87,
    0x76, 0x88, 0x86, 0x57, 0x75, 0x89, 0x87, 0x56, 0x68, 0x57,
    0x89, 0x68, 0x56, 0x79, 0x58, 0x98, 0x58, 0x86, 0x56, 0x77,
    0x78, 0x59, 0x98, 0x86, 0x98, 0x56, 0x78, 0x87, 0x78, 0x86,
    0x65, 0x75, 0x87, 0x67, 0x87, 0x68, 0x75, 0x88, 0x88, 0x86,
    0x86, 0x96, 0x67, 0x95, 0x76, 0x97, 0x76, 0x58, 0x98, 0x88,
    0x58, 0x77, 0x58, 0x78, 0x96, 0x58, 0x88, 0x67, 0x86, 0x97,
    0x76, 0x87, 0x76, 0x56, 0x94, 0x98, 0x97, 0x98, 0x58, 0x58,
    0x87, 0x57, 0x68, 0x78, 0x88, 0x67, 0x87, 0x65, 0x77, 0x59,
    0x58, 0x85, 0x55, 0x68, 0x86, 0x86, 0x55, 0x65, 0x77, 0x69,
    0x87, 0x66, 0x88, 0x88, 0x76, 0x99, 0x68, 0x68, 0x68, 0x78,
    0x85, 0x75, 0x87, 0x58, 0x77, 0x68, 0x75, 0x87, 0x86, 0x66,
    0x77, 0x78, 0x53, 0x57, 0x56, 0x87, 0x95, 0x88, 0x76, 0x86,
    0x67, 0x55, 0x67, 0x87, 0x69, 0x88, 0x54, 0x66, 0x56, 0x77,
    0x57, 0x98, 0x58, 0x79, 0x76, 0x77, 0x55, 0x67, 0x95, 0x98,
    0x68, 0x77, 0x98, 0x79, 0x97, 0x95, 0x97, 0x85, 0x87, 0x57,
    0x66, 0x76, 0x95, 0x67, 0x69, 0x87, 0x76, 0x96, 0x77, 0x87,
    0x78, 0x68, 0x79, 0x86, 0x77, 0x68, 0x58, 0x77, 0x88, 0x75,
    0x57, 0x77, 0x87, 0x89, 0x88, 0x86, 0x58, 0x59, 0x86, 0x77,
    0x66, 0x67, 0x86, 0x88, 0x99, 0x97, 0x77, 0x86, 0x99, 0x96,
    0x68, 0x66, 0x68, 0x79, 0x67, 0x76, 0x68, 0x98, 0x78, 0x86,
    0x67, 0x68, 0x88, 0x67, 0x69, 0x79, 0x68, 0x88, 0x67, 0x66,
    0x68, 0x69, 0x68, 0x78, 0x97, 0x67, 0x67, 0x59, 0x65, 0x97,
    0x67, 0x86, 0x88, 0x75, 0x87, 0x87, 0x77, 0x57, 0x97, 0x59,
    0x87, 0x97, 0x75, 0x77, 0x77, 0x87, 0x77, 0x87, 0x87, 0x99,
    0x87, 0x66, 0x78, 0x77, 0x57, 0x67, 0x55, 0x88, 0x67, 0x65,
    0x67, 0x78, 0x87, 0x86, 0x55, 0x86, 0x76, 0x89, 0x67, 0x75,
    0x56, 0x75, 0x58, 0x96, 0x77, 0x88, 0x85, 0x65, 0x98, 0x67,
    0x86, 0x97, 0x67, 0x69, 0x65, 0x86, 0x67, 0x58, 0x99, 0x77,
    0x89, 0x97, 0x88, 0x68, 0x79, 0x55, 0x75, 0x86, 0x77, 0x78,
    0x67, 0x57, 0x75, 0x66, 0x88, 0x78, 0x67, 0x65, 0x87, 0x76,
    0x88, 0x58, 0x79, 0x97, 0x79, 0x85, 0x96, 0x69, 0x67, 0x75,
    0x59, 0x78, 0x95, 0x49, 0x85, 0x96, 0x96, 0x66, 0x66, 0x56,
    0x87, 0x88, 0x76, 0x87, 0x77, 0x76, 0x96, 0x87, 0x67, 0x78,
    0x77, 0x95, 0x79, 0x58, 0x75, 0x88, 0x56, 0x79, 0x69, 0x96,
    0x87, 0x79, 0x68, 0x78, 0x85, 0x87, 0x98, 0x97, 0x89, 0x88,
    0x65, 0x58, 0x56, 0x97, 0x85, 0x79, 0x79, 0x67, 0x65, 0x98,
    0x76, 0x79, 0x68, 0x78, 0x68, 0x56, 0x86, 0x87, 0x98, 0x77,
    0x67, 0x98, 0x69, 0x66, 0x78, 0x78, 0x57, 0x76, 0x67, 0x97,
    0x96, 0x89, 0x88, 0x98, 0x78, 0x56, 0x99, 0x79, 0x65, 0x96,
    0x67, 0x88, 0x59, 0x69, 0x86, 0x99, 0x95, 0x87, 0x78, 0x68,
    0x76, 0x65, 0x86, 0x79, 0x79, 0x85, 0x78, 0x88, 0x79, 0x68,
    0x65, 0x66, 0x86, 0x76, 0x87, 0x67, 0x65, 0x69, 0x97, 0x98,
    0x96, 0x88, 0x88, 0x77, 0x68, 0x97, 0x66, 0x86, 0x69, 0x77,
    0x95, 0x68, 0x79, 0x85, 0x65, 0x67, 0x98, 0x78, 0x65, 0x86,
    0x79, 0x78, 0x69, 0x65, 0x66, 0x88, 0x75, 0x78, 0x76, 0x96,
    0x59, 0x77, 0x89, 0x89, 0x69, 0x77, 0x79, 0x99, 0x79, 0x86,
    0x66, 0x86, 0x97, 0x69, 0x69, 0x68, 0x67, 0x89, 0x68, 0x56,
    0x55, 0x68, 0x78, 0x97, 0x68, 0x87, 0x67, 0x95, 0x88, 0x66,
    0x97, 0x67, 0x68, 0x97, 0x99, 0x98, 0x96, 0x97, 0x78, 0x57,
    0x68, 0x86, 0x58, 0x67, 0x87, 0x86, 0x65, 0x77, 0x85, 0x78,
    0x69, 0x66, 0x78, 0x57, 0x67, 0x78, 0x86, 0x85, 0x68, 0x59,
    0x69, 0x87, 0x89, 0x78, 0x79, 0x99, 0x58, 0x78, 0x87, 0x77,
    0x76, 0x66, 0x76, 0x88, 0x75, 0x96, 0x75, 0x59, 0x87, 0x76,
    0x79, 0x79, 0x66, 0x97, 0x97, 0x96, 0x65, 0x67, 0x87, 0x77,
    0x89, 0x78, 0x88, 0x59, 0x68, 0x76, 0x97, 0x58, 0x56, 0x99,
    0x66, 0x89, 0x96, 0x79, 0x99, 0x75, 0x68, 0x56, 0x99, 0x68,
    0x68, 0x76, 0x99, 0x76, 0x68, 0x58, 0x77, 0x76, 0x65, 0x67,
    0x69, 0x98, 0x56, 0x69, 0x68, 0x57, 0x58, 0x88, 0x97, 0x89,
    0x78, 0x76, 0x77, 0x88, 0x87, 0x76, 0x58, 0x97, 0x86, 0x95,
    0x96, 0x87, 0x68, 0x97, 0x69, 0x78, 0x78, 0x66, 0x68, 0x99,
    0x67, 0x78, 0x66, 0x98, 0x78, 0x89, 0x95, 0x57, 0x86, 0x68,
    0x79, 0x78, 0x66, 0x85, 0x67, 0x77, 0x56, 0x89, 0x87, 0x99,
    0x86, 0x87, 0x87, 0x59, 0x66, 0x89, 0x69, 0x67, 0x78, 0x99,
    0x86, 0x86, 0x57, 0x77, 0x85, 0x68, 0x79, 0x68, 0x77, 0x88,
    0x95, 0x77, 0x66, 0x78, 0x88, 0x76, 0x86, 0x78, 0x75, 0x68,
    0x56, 0x75, 0x98, 0x66, 0x85, 0x78, 0x89, 0x76, 0x78, 0x67,
    0x69, 0x77, 0x75, 0x66, 0x68, 0x56, 0x99, 0x68, 0x57, 0x79,
    0x55, 0x87, 0x57, 0x56, 0x76, 0x69, 0x65, 0x87, 0x76, 0x78,
    0x79, 0x59, 0x78, 0x57, 0x76, 0x56, 0x65, 0x69, 0x67, 0x56,
    0x76, 0x77, 0x65, 0x76, 0x69, 0x58, 0x86, 0x97, 0x88, 0x75,
    0x68, 0x77, 0x86, 0x85, 0x88, 0x58, 0x65, 0x57, 0x88, 0x87,
    0x75, 0x57, 0x86, 0x78, 0x79, 0x75, 0x87, 0x86, 0x58, 0x77,
    0x68, 0x77, 0x67, 0x77, 0x86, 0x57, 0x98, 0x77, 0x66, 0x67,
    0x98, 0x69, 0x59, 0x77, 0x67, 0x76, 0x88, 0x96, 0x68, 0x87,
    0x98, 0x67, 0x86, 0x76, 0x58, 0x68, 0x65, 0x99, 0x88, 0x79,
    0x57, 0x97, 0x99, 0x56, 0x65, 0x66, 0x95, 0x56, 0x98, 0x86,
    0x87, 0x86, 0x85, 0x78, 0x77, 0x75, 0x78, 0x56, 0x67, 0x59,
    0x76, 0x89, 0x77, 0x76, 0x85, 0x65, 0x77, 0x58, 0x75, 0x87,
    0x65, 0x58, 0x96, 0x65, 0x74, 0x86, 0x76, 0x55, 0x57, 0x85,
    0x77, 0x77, 0x56, 0x66, 0x69, 0x88, 0x89, 0x78, 0x86, 0x58,
    0x68, 0x85, 0x67, 0x68, 0x56, 0x97, 0x56, 0x78, 0x67, 0x78,
    0x65, 0x58, 0x87, 0x58, 0x77, 0x55, 0x88, 0x77, 0x88, 0x87,
    0x87, 0x78, 0x69, 0x87, 0x67, 0x65, 0x69, 0x65, 0x67, 0x59,
    0x66, 0x75, 0x68, 0x67, 0x96, 0x77, 0x99, 0x69, 0x68, 0x68,
    0x66, 0x58, 0x77, 0x66, 0x96, 0x66, 0x65, 0x75, 0x79, 0x78,
    0x86, 0x89, 0x78, 0x68, 0x77, 0x68, 0x58, 0x95, 0x78, 0x57,
    0x67, 0x76, 0x87, 0x85, 0x67, 0x87, 0x75, 0x76, 0x78, 0x88,
    0x86, 0x86, 0x79, 0x86, 0x85, 0x88, 0x76, 0x86, 0x79, 0x57,
    0x88, 0x57, 0x68, 0x67, 0x79, 0x68, 0x65, 0x67, 0x57, 0x57,
    0x78, 0x88, 0x87, 0x87, 0x79, 0x55, 0x67, 0x78, 0x85, 0x77,
    0x98, 0x95, 0x97, 0x79, 0x78, 0x99, 0x68, 0x96, 0x56, 0x87,
    0x86, 0x66, 0x66, 0x67, 0x66, 0x86, 0x75, 0x98, 0x68, 0x68,
    0x65, 0x76, 0x88, 0x96, 0x88, 0x66, 0x58, 0x68, 0x86, 0x76,
    0x56, 0x59, 0x69, 0x76, 0x88, 0x67, 0x67, 0x66, 0x67, 0x97,
    0x76, 0x68, 0x58, 0x98, 0x65, 0x68, 0x76, 0x87, 0x79, 0x78,
    0x57, 0x87, 0x88, 0x86, 0x79, 0x67, 0x99, 0x97, 0x76, 0x87,
    0x76, 0x76, 0x75, 0x78, 0x97, 0x67, 0x65, 0x78, 0x88, 0x98,
    0x67, 0x87, 0x77, 0x57, 0x77, 0x68, 0x65, 0x96, 0x97, 0x99,
    0x67, 0x89, 0x87, 0x97, 0x96, 0x85, 0x77, 0x67, 0x56, 0x66,
    0x87, 0x87, 0x66, 0x68, 0x66, 0x77, 0x76, 0x56, 0x87, 0x68,
    0x78, 0x87, 0x76, 0x79, 0x55, 0x65, 0x86, 0x55, 0x67, 0x66,
    0x78, 0x66, 0x69, 0x77, 0x58, 0x68, 0x56, 0x76, 0x87, 0x89,
    0x76, 0x87, 0x67, 0x68, 0x97, 0x75, 0x75, 0x88, 0x86, 0x77,
    0x75, 0x86, 0x77, 0x85, 0x87, 0x98, 0x78, 0x96, 0x67, 0x56,
    0x86, 0x96, 0x55, 0x65, 0x57, 0x78, 0x77, 0x67, 0x95, 0x87,
    0x87, 0x58, 0x86, 0x68, 0x77, 0x68, 0x69, 0x76, 0x98, 0x87,
    0x75, 0x76, 0x87, 0x98, 0x78, 0x69, 0x77, 0x78, 0x75, 0x77,
    0x68, 0x56, 0x75, 0x77, 0x55, 0x86, 0x66, 0x56, 0x86, 0x76,
    0x96, 0x78, 0x86, 0x89, 0x79, 0x95, 0x67, 0x77, 0x76, 0x58,
    0x76, 0x65, 0x66, 0x79, 0x86, 0x68, 0x67, 0x58, 0x69, 0x57,
    0x88, 0x96, 0x88, 0x87, 0x57, 0x77, 0x97, 0x76, 0x96, 0x75,
    0x76, 0x89, 0x97, 0x78, 0x68, 0x56, 0x89, 0x67, 0x68, 0x87,
    0x76, 0x55, 0x77, 0x55, 0x89, 0x99, 0x77, 0x57, 0x55, 0x97,
    0x97, 0x87, 0x99, 0x98, 0x86, 0x79, 0x76, 0x79, 0x56, 0x89,
    0x97, 0x65, 0x78, 0x67, 0x66, 0x68, 0x67, 0x69, 0x58, 0x87,
    0x89, 0x68, 0x95, 0x66, 0x67, 0x88, 0x99, 0x68, 0x68, 0x56,
    0x66, 0x78, 0x57, 0x76, 0x57, 0x87, 0x87, 0x78, 0x96, 0x59,
    0x77, 0x88, 0x69, 0x77, 0x59, 0x77, 0x58, 0x97, 0x88, 0x77,
    0x75, 0x55, 0x78, 0x76, 0x78, 0x69, 0x68, 0x96, 0x87, 0x86,
    0x56, 0x87, 0x85, 0x78, 0x68, 0x88, 0x57, 0x65, 0x89, 0x67,
    0x77, 0x98, 0x67, 0x78, 0x58, 0x55, 0x78, 0x69, 0x88, 0x58,
    0x88, 0x57, 0x67, 0x95, 0x96, 0x67, 0x77, 0x55, 0x76, 0x65,
    0x68, 0x88, 0x86, 0x87, 0x76, 0x57, 0x56, 0x67, 0x68, 0x57,
    0x67, 0x67, 0x96, 0x86, 0x76, 0x86, 0x65, 0x88, 0x87, 0x99,
    0x77, 0x79, 0x86, 0x68, 0x76, 0x59, 0x56, 0x67, 0x67, 0x89,
    0x87, 0x87, 0x77, 0x57, 0x57, 0x77, 0x67, 0x77, 0x85, 0x66,
    0x67, 0x77, 0x75, 0x66, 0x88, 0x67, 0x87, 0x96, 0x86, 0x68,
    0x75, 0x65, 0x76, 0x85, 0x76, 0x98, 0x68, 0x67, 0x97, 0x77,
    0x65, 0x68, 0x69, 0x87, 0x68, 0x87, 0x69, 0x65, 0x75, 0x66,
    0x67, 0x86, 0x87, 0x65, 0x76, 0x68, 0x88, 0x67, 0x66, 0x79,
    0x86, 0x95, 0x69, 0x77, 0x86, 0x85, 0x97, 0x85, 0x85, 0x77,
    0x95, 0x79, 0x58, 0x69, 0x66, 0x86, 0x68, 0x96, 0x56, 0x58,
    0x69, 0x56, 0x76, 0x79, 0x68, 0x67, 0x77, 0x88, 0x88, 0x87,
    0x79, 0x59, 0x77, 0x59, 0x57, 0x77, 0x87, 0x58, 0x56, 0x88,
    0x68, 0x87, 0x76, 0x55, 0x86, 0x66, 0x87, 0x56, 0x67, 0x69,
    0x99, 0x88, 0x65, 0x88, 0x88, 0x55, 0x78, 0x55, 0x75, 0x56,
    0x85, 0x98, 0x66, 0x78, 0x86, 0x58, 0x78, 0x75, 0x78, 0x76,
    0x85, 0x65, 0x97, 0x89, 0x98, 0x98, 0x66, 0x97, 0x67, 0x86,
    0x68, 0x89, 0x66, 0x89, 0x97, 0x76, 0x89, 0x88, 0x89, 0x87,
    0x76, 0x95, 0x87, 0x86, 0x67, 0x95, 0x88, 0x77, 0x95, 0x65,
    0x98, 0x79, 0x88, 0x78, 0x75, 0x99, 0x67, 0x86, 0x68, 0x76,
    0x67, 0x97, 0x67, 0x57, 0x86, 0x97, 0x89, 0x67, 0x78, 0x98,
    0x77, 0x87, 0x78, 0x75, 0x75, 0x69, 0x78, 0x85, 0x76, 0x78,
    0x76, 0x89, 0x75, 0x66, 0x88, 0x97, 0x69, 0x56, 0x98, 0x88,
    0x56, 0x67, 0x88, 0x86, 0x59, 0x56, 0x76, 0x88, 0x97, 0x56,
    0x65, 0x87, 0x88, 0x87, 0x75, 0x69, 0x68, 0x76, 0x86, 0x66,
    0x56, 0x98, 0x98, 0x76, 0x87, 0x69, 0x98, 0x76, 0x58, 0x59,
    0x67, 0x68, 0x97, 0x67, 0x87, 0x87, 0x98, 0x65, 0x89, 0x97,
    0x67, 0x66, 0x75, 0x68, 0x55, 0x86, 0x98, 0x66, 0x76, 0x75,
    0x86, 0x77, 0x76, 0x76, 0x98, 0x79, 0x59, 0x79, 0x57, 0x86,
    0x58, 0x79, 0x68, 0x77, 0x65, 0x66, 0x69, 0x75, 0x76, 0x99,
    0x78, 0x96, 0x85, 0x85, 0x77, 0x88, 0x76, 0x77, 0x65, 0x57,
    0x89, 0x69, 0x88, 0x86, 0x86, 0x68, 0x88, 0x58, 0x68, 0x68,
    0x78, 0x67, 0x76, 0x87, 0x98, 0x66, 0x95, 0x78, 0x85, 0x65,
    0x68, 0x68, 0x98, 0x77, 0x58, 0x67, 0x68, 0x56, 0x56, 0x96,
    0x86, 0x56, 0x76, 0x85, 0x55, 0x67, 0x98, 0x79, 0x57, 0x86,
    0x55, 0x59, 0x89, 0x68, 0x56, 0x88, 0x75, 0x69, 0x76, 0x57,
    0x86, 0x77, 0x95, 0x57, 0x88, 0x78, 0x88, 0x69, 0x78, 0x67,
    0x55, 0x87, 0x57, 0x67, 0x88, 0x56, 0x68, 0x88, 0x87, 0x66,
    0x57, 0x78, 0x68, 0x68, 0x65, 0x77, 0x75, 0x97, 0x58, 0x95,
    0x69, 0x66, 0x75, 0x68, 0x78, 0x77, 0x55, 0x67, 0x78, 0x76,
    0x95, 0x76, 0x76, 0x66, 0x75, 0x87, 0x87, 0x58, 0x96, 0x59,
    0x66, 0x76, 0x88, 0x88, 0x57, 0x85, 0x78, 0x76, 0x85, 0x65,
    0x75, 0x98, 0x56, 0x66, 0x75, 0x77, 0x88, 0x97, 0x79, 0x76,
    0x68, 0x79, 0x77, 0x86, 0x57, 0x57, 0x97, 0x67, 0x85, 0x97,
    0x89, 0x78, 0x67, 0x67, 0x86, 0x86, 0x79, 0x56, 0x78, 0x58,
    0x75, 0x85, 0x58, 0x67, 0x56, 0x58, 0x79, 0x67, 0x56, 0x85,
    0x77, 0x78, 0x85, 0x97, 0x76, 0x66, 0x97, 0x86, 0x77, 0x87,
    0x56, 0x98, 0x77, 0x76, 0x75, 0x76, 0x78, 0x66, 0x55, 0x85,
    0x86, 0x86, 0x86, 0x66, 0x86, 0x95, 0x75, 0x86, 0x87, 0x78,
    0x57, 0x78, 0x78, 0x76, 0x85, 0x68, 0x57, 0x66, 0x77, 0x75,
    0x67, 0x85, 0x58, 0x88, 0x97, 0x87, 0x77, 0x56, 0x68, 0x87,
    0x59, 0x79, 0x86, 0x57, 0x96, 0x68, 0x66, 0x69, 0x85, 0x98,
    0x96, 0x77, 0x67, 0x88, 0x87, 0x99, 0x85, 0x67, 0x85, 0x75,
    0x66, 0x75, 0x77, 0x66, 0x76, 0x86, 0x78, 0x67, 0x78, 0x79,
    0x57, 0x88, 0x66, 0x66, 0x59, 0x56, 0x77, 0x87, 0x88, 0x77,
    0x85, 0x77, 0x78, 0x76, 0x77, 0x78, 0x86, 0x98, 0x77, 0x65,
    0x68, 0x57, 0x77, 0x76, 0x56, 0x77, 0x65, 0x68, 0x58, 0x68,
    0x78, 0x67, 0x67, 0x69, 0x59, 0x78, 0x78, 0x55, 0x76, 0x77,
    0x89, 0x87, 0x78, 0x96, 0x65, 0x97, 0x89, 0x66, 0x58, 0x78,
    0x56, 0x67, 0x77, 0x87, 0x96, 0x78, 0x88, 0x57, 0x68, 0x65,
    0x86, 0x95, 0x66, 0x58, 0x78, 0x87, 0x98, 0x87, 0x89, 0x88,
    0x75, 0x68, 0x59, 0x69, 0x99, 0x76, 0x76, 0x77, 0x96, 0x56,
    0x77, 0x79, 0x98, 0x68, 0x78, 0x88, 0x85, 0x88, 0x77, 0x65,
    0x89, 0x78, 0x66, 0x96, 0x76, 0x65, 0x86, 0x79, 0x66, 0x96,
    0x76, 0x87, 0x66, 0x99, 0x99, 0x87, 0x65, 0x58, 0x67, 0x85,
    0x87, 0x77, 0x66, 0x77, 0x67, 0x77, 0x98, 0x77, 0x69, 0x76,
    0x59, 0x66, 0x97, 0x69, 0x76, 0x88, 0x76, 0x66, 0x99, 0x78,
    0x75, 0x66, 0x78, 0x98, 0x99, 0x85, 0x68, 0x76, 0x85, 0x55,
    0x75, 0x68, 0x77, 0x78, 0x67, 0x66, 0x87, 0x75, 0x69, 0x75,
    0x66, 0x86, 0x87, 0x89, 0x85, 0x66, 0x77, 0x87, 0x66, 0x56,
    0x56, 0x68, 0x76, 0x75, 0x98, 0x86, 0x58, 0x86, 0x57, 0x76,
    0x68, 0x78, 0x97, 0x76, 0x67, 0x87, 0x78, 0x87, 0x68, 0x86,
    0x97, 0x75, 0x57, 0x67, 0x79, 0x99, 0x67, 0x88, 0x98, 0x96,
    0x86, 0x85, 0x68, 0x77, 0x87, 0x76, 0x78, 0x67, 0x66, 0x65,
    0x77, 0x77, 0x87, 0x88, 0x86, 0x87, 0x76, 0x88, 0x86, 0x96,
    0x66, 0x76, 0x98, 0x55, 0x87, 0x76, 0x68, 0x76, 0x77, 0x65,
    0x78, 0x69, 0x55, 0x66, 0x65, 0x68, 0x88, 0x85, 0x78, 0x68,
    0x76, 0x76, 0x57, 0x77, 0x78, 0x66, 0x99, 0x76, 0x85, 0x67,
    0x66, 0x68, 0x67, 0x78, 0x78, 0x77, 0x79, 0x58, 0x58, 0x77,
    0x58, 0x97, 0x87, 0x86, 0x75, 0x68, 0x66, 0x56, 0x69, 0x77,
    0x57, 0x68, 0x77, 0x76, 0x87, 0x88, 0x99, 0x97, 0x75, 0x95,
    0x77, 0x77, 0x59, 0x67, 0x98, 0x85, 0x85, 0x89, 0x65, 0x98,
    0x76, 0x88, 0x98, 0x66, 0x98, 0x77, 0x68, 0x55, 0x96, 0x85,
    0x67, 0x85, 0x79, 0x67, 0x67, 0x68, 0x68, 0x57, 0x75, 0x79,
    0x79, 0x96, 0x56, 0x98, 0x86, 0x66, 0x68, 0x97, 0x88, 0x86,
    0x98, 0x59, 0x89, 0x78, 0x56, 0x67, 0x86, 0x67, 0x66, 0x76,
    0x68, 0x66, 0x57, 0x86, 0x66, 0x99, 0x77, 0x89, 0x79, 0x59,
    0x86, 0x77, 0x99, 0x86, 0x68, 0x57, 0x77, 0x89, 0x76, 0x77,
    0x77, 0x66, 0x78, 0x67, 0x67, 0x77, 0x87, 0x75, 0x98, 0x89,
    0x69, 0x96, 0x57, 0x68, 0x97, 0x65, 0x87, 0x79, 0x68, 0x77,
    0x76, 0x97, 0x56, 0x97, 0x58, 0x89, 0x77, 0x98, 0x78, 0x77,
    0x58, 0x75, 0x98, 0x55, 0x85, 0x77, 0x97, 0x97, 0x87, 0x67,
    0x56, 0x75, 0x68, 0x76, 0x76, 0x75, 0x87, 0x59, 0x87, 0x69,
    0x69, 0x75, 0x89, 0x75, 0x68, 0x79, 0x69, 0x69, 0x97, 0x85,
    0x67, 0x77, 0x68, 0x87, 0x57, 0x86, 0x67, 0x79, 0x97, 0x75,
    0x77, 0x57, 0x66, 0x85, 0x66, 0x66, 0x87, 0x55, 0x69, 0x87,
    0x67, 0x75, 0x58, 0x68, 0x88, 0x96, 0x75, 0x66, 0x59, 0x87,
    0x69, 0x85, 0x66, 0x99, 0x76, 0x67, 0x65, 0x75, 0x55, 0x85,
    0x66, 0x78, 0x57, 0x99, 0x78, 0x96, 0x79, 0x56, 0x76, 0x88,
    0x65, 0x56, 0x58, 0x75, 0x57, 0x68, 0x56, 0x78, 0x97, 0x87,
    0x87, 0x66, 0x58, 0x76, 0x56, 0x88, 0x77, 0x76, 0x57, 0x86,
    0x67, 0x96, 0x68, 0x66, 0x57, 0x67, 0x87, 0x75, 0x65, 0x78,
    0x99, 0x86, 0x89, 0x78, 0x57, 0x87, 0x75, 0x78, 0x78, 0x88,
    0x98, 0x67, 0x87, 0x76, 0x75, 0x89, 0x97, 0x77, 0x58, 0x75,
    0x57, 0x77, 0x77, 0x68, 0x87, 0x65, 0x68, 0x86, 0x56, 0x76,
    0x77, 0x75, 0x77, 0x58, 0x76, 0x97, 0x76, 0x85, 0x65, 0x68,
    0x65, 0x95, 0x95, 0x87, 0x87, 0x67, 0x65, 0x56, 0x66, 0x67,
    0x88, 0x67, 0x76, 0x86, 0x68, 0x66, 0x67, 0x79, 0x77, 0x88,
    0x95, 0x77, 0x65, 0x97, 0x57, 0x87, 0x88, 0x75, 0x87, 0x98,
    0x86, 0x65, 0x76, 0x98, 0x76, 0x66, 0x86, 0x98, 0x66, 0x67,
    0x85, 0x75, 0x66, 0x77, 0x68, 0x77, 0x58, 0x98, 0x86, 0x69,
    0x88, 0x68, 0x58, 0x87, 0x86, 0x95, 0x85, 0x57, 0x88, 0x86,
    0x57, 0x85, 0x78, 0x68, 0x55, 0x97, 0x88, 0x95, 0x77, 0x86,
    0x98, 0x59, 0x68, 0x57, 0x76, 0x86, 0x85, 0x57, 0x75, 0x75,
    0x69, 0x98, 0x67, 0x58, 0x88, 0x66, 0x77, 0x77, 0x76, 0x67,
    0x67, 0x67, 0x66, 0x86, 0x66, 0x58, 0x76, 0x75, 0x88, 0x66,
    0x56, 0x78, 0x59, 0x85, 0x86, 0x57, 0x85, 0x96, 0x75, 0x87,
    0x77, 0x57, 0x78, 0x85, 0x97, 0x96, 0x68, 0x76, 0x87, 0x68,
    0x58, 0x87, 0x78, 0x77, 0x69, 0x98, 0x66, 0x68, 0x87, 0x68,
    0x57, 0x86, 0x68, 0x77, 0x88, 0x89, 0x97, 0x68, 0x79, 0x76,
    0x88, 0x76, 0x76, 0x57, 0x68, 0x87, 0x75, 0x98, 0x55, 0x78,
    0x57, 0x77, 0x97, 0x78, 0x76, 0x87, 0x77, 0x56, 0x76, 0x79,
    0x79, 0x77, 0x77, 0x77, 0x88, 0x96, 0x87, 0x66, 0x65, 0x98,
    0x86, 0x58, 0x66, 0x75, 0x96, 0x66, 0x77, 0x96, 0x77, 0x69,
    0x79, 0x59, 0x68, 0x98, 0x55, 0x75, 0x85, 0x85, 0x59, 0x67,
    0x66, 0x76, 0x55, 0x67, 0x77, 0x58, 0x96, 0x75, 0x68, 0x88,
    0x88, 0x88, 0x96, 0x95, 0x86, 0x58, 0x68, 0x78, 0x99, 0x55,
    0x77, 0x66, 0x87, 0x65, 0x89, 0x88, 0x95, 0x57, 0x77, 0x58,
    0x98, 0x76, 0x65, 0x57, 0x68, 0x66, 0x65, 0x87, 0x56, 0x67,
    0x78, 0x87, 0x77, 0x87, 0x86, 0x65, 0x87, 0x78, 0x98, 0x66,
    0x57, 0x76, 0x59, 0x55, 0x77, 0x67, 0x77, 0x56, 0x85, 0x88,
    0x96, 0x67, 0x67, 0x58, 0x78, 0x68, 0x97, 0x78, 0x58, 0x56,
    0x67, 0x97, 0x96, 0x78, 0x69, 0x66, 0x69, 0x78, 0x59, 0x87,
    0x76, 0x87, 0x65, 0x77, 0x58, 0x66, 0x68, 0x67, 0x56, 0x89,
    0x76, 0x55, 0x85, 0x87, 0x68, 0x96, 0x86, 0x76, 0x55, 0x78,
    0x69, 0x86, 0x56, 0x56, 0x67, 0x86, 0x86, 0x87, 0x99, 0x76,
    0x95, 0x87, 0x96, 0x99, 0x76, 0x77, 0x67, 0x67, 0x95, 0x76,
    0x76, 0x66, 0x78, 0x78, 0x68, 0x68, 0x58, 0x86, 0x79, 0x75,
    0x97, 0x88, 0x96, 0x86, 0x67, 0x86, 0x57, 0x69, 0x66, 0x88,
    0x68, 0x65, 0x56, 0x55, 0x79, 0x79, 0x88, 0x88, 0x58, 0x59,
    0x78, 0x68, 0x66, 0x87, 0x65, 0x66, 0x95, 0x77, 0x67, 0x77,
    0x56, 0x66, 0x96, 0x68, 0x89, 0x96, 0x69, 0x89, 0x68, 0x57,
    0x66, 0x59, 0x68, 0x76, 0x87, 0x78, 0x66, 0x87, 0x75, 0x78,
    0x68, 0x98, 0x89, 0x76, 0x87, 0x68, 0x59, 0x87, 0x76, 0x67,
    0x78, 0x66, 0x78, 0x77, 0x55, 0x77, 0x95, 0x68, 0x69, 0x58,
    0x77, 0x88, 0x85, 0x56, 0x59, 0x66, 0x76, 0x55, 0x79, 0x79,
    0x55, 0x86, 0x85, 0x86, 0x78, 0x66, 0x87, 0x67, 0x75, 0x58,
    0x56, 0x77, 0x58, 0x67, 0x76, 0x76, 0x87, 0x59, 0x56, 0x76,
    0x77, 0x56, 0x88, 0x87, 0x65, 0x69, 0x78, 0x86, 0x55, 0x59,
    0x69, 0x88, 0x65, 0x77, 0x78, 0x68, 0x56, 0x68, 0x75, 0x77,
    0x98, 0x77, 0x66, 0x68, 0x59, 0x55, 0x58, 0x97, 0x67, 0x68,
    0x98, 0x76, 0x69, 0x76, 0x88, 0x87, 0x85, 0x76, 0x78, 0x88,
    0x68, 0x76, 0x68, 0x78, 0x95, 0x69, 0x67, 0x77, 0x57, 0x96,
    0x76, 0x88, 0x57, 0x69, 0x78, 0x68, 0x87, 0x78, 0x89, 0x97,
    0x85, 0x78, 0x65, 0x66, 0x97, 0x98, 0x67, 0x76, 0x55, 0x86,
    0x65, 0x65, 0x89, 0x76, 0x96, 0x77, 0x86, 0x87, 0x97, 0x98,
    0x77, 0x78, 0x75, 0x65, 0x88, 0x77, 0x66, 0x85, 0x75, 0x67,
    0x76, 0x76, 0x76, 0x86, 0x57, 0x66, 0x55, 0x68, 0x77, 0x66,
    0x77, 0x68, 0x89, 0x75, 0x76, 0x56, 0x57, 0x96, 0x99, 0x59,
    0x86, 0x79, 0x76, 0x78, 0x65, 0x87, 0x85, 0x86, 0x76, 0x57,
    0x68, 0x57, 0x57, 0x88, 0x65, 0x69, 0x78, 0x98, 0x86, 0x78,
    0x68, 0x96, 0x57, 0x66, 0x79, 0x78, 0x78, 0x69, 0x55, 0x67,
    0x87, 0x95, 0x87, 0x77, 0x68, 0x68, 0x97, 0x87, 0x79, 0x67,
    0x77, 0x75, 0x76, 0x76, 0x57, 0x69, 0x68, 0x78, 0x86, 0x66,
    0x86, 0x99, 0x67, 0x58, 0x87, 0x96, 0x57, 0x85, 0x87, 0x57,
    0x86, 0x96, 0x69, 0x78, 0x67, 0x97, 0x76, 0x66, 0x67, 0x57,
    0x58, 0x86, 0x66, 0x89, 0x69, 0x99, 0x86, 0x66, 0x58, 0x68,
    0x85, 0x78, 0x77, 0x98, 0x98, 0x65, 0x86, 0x89, 0x88, 0x78,
    0x69, 0x78, 0x78, 0x66, 0x66, 0x56, 0x86, 0x98, 0x56, 0x68,
    0x77, 0x87, 0x76, 0x88, 0x98, 0x76, 0x66, 0x85, 0x78, 0x65,
    0x58, 0x96, 0x57, 0x69, 0x78, 0x75, 0x66, 0x57, 0x65, 0x77,
    0x68, 0x85, 0x69, 0x55, 0x79, 0x79, 0x78, 0x75, 0x98, 0x75,
    0x98, 0x58, 0x77, 0x88, 0x76, 0x66, 0x87, 0x77, 0x66, 0x87,
    0x68, 0x66, 0x99, 0x89, 0x86, 0x57, 0x96, 0x87, 0x68, 0x67,
    0x86, 0x58, 0x66, 0x68, 0x79, 0x55, 0x87, 0x75, 0x86, 0x98,
    0x68, 0x77, 0x69, 0x58, 0x78, 0x78, 0x89, 0x75, 0x95, 0x89,
    0x68, 0x76, 0x67, 0x66, 0x88, 0x86, 0x58, 0x75, 0x76, 0x87,
    0x76, 0x76, 0x69, 0x97, 0x59, 0x88, 0x77, 0x55, 0x65, 0x97,
    0x58, 0x58, 0x66, 0x86, 0x67, 0x88, 0x85, 0x89, 0x68, 0x77,
    0x76, 0x76, 0x67, 0x67, 0x68, 0x67, 0x87, 0x69, 0x78, 0x76,
    0x76, 0x77, 0x68, 0x79, 0x78, 0x66, 0x75, 0x55, 0x87, 0x99,
    0x55, 0x57, 0x67, 0x68, 0x76, 0x57, 0x66, 0x97, 0x67, 0x58,
    0x68, 0x66, 0x69, 0x88, 0x58, 0x58, 0x76, 0x76, 0x58, 0x88,
    0x58, 0x77, 0x68, 0x67, 0x58, 0x75, 0x97, 0x59, 0x86, 0x96,
    0x88, 0x75, 0x66, 0x78, 0x68, 0x77, 0x65, 0x98, 0x87, 0x66,
    0x66, 0x79, 0x95, 0x79, 0x76, 0x86, 0x88, 0x78, 0x88, 0x86,
    0x95, 0x67, 0x88, 0x99, 0x78, 0x77, 0x67, 0x66, 0x88, 0x55,
    0x79, 0x77, 0x66, 0x55, 0x87, 0x79, 0x56, 0x58, 0x67, 0x88,
    0x67, 0x76, 0x78, 0x85, 0x88, 0x76, 0x76, 0x98, 0x68, 0x77,
    0x69, 0x75, 0x78, 0x75, 0x68, 0x87, 0x75, 0x57, 0x88, 0x79,
    0x86, 0x56, 0x86, 0x76, 0x78, 0x85, 0x58, 0x57, 0x68, 0x86,
    0x78, 0x69, 0x66, 0x75, 0x67, 0x79, 0x75, 0x67, 0x67, 0x85,
    0x88, 0x78, 0x78, 0x69, 0x76, 0x77, 0x56, 0x66, 0x79, 0x67,
    0x85, 0x87, 0x66, 0x88, 0x56, 0x56, 0x86, 0x66, 0x79, 0x77,
    0x57, 0x96, 0x78, 0x77, 0x87, 0x79, 0x68, 0x78, 0x87, 0x55,
    0x85, 0x67, 0x87, 0x86, 0x67, 0x75, 0x69, 0x78, 0x78, 0x67,
    0x79, 0x75, 0x67, 0x87, 0x67, 0x87, 0x68, 0x96, 0x68, 0x58,
    0x55, 0x67, 0x76, 0x69, 0x67, 0x76, 0x77, 0x87, 0x58, 0x57,
    0x99, 0x79, 0x76, 0x78, 0x75, 0x78, 0x85, 0x78, 0x78, 0x95,
    0x66, 0x67, 0x77, 0x67, 0x87, 0x68, 0x78, 0x78, 0x68, 0x85,
    0x77, 0x87, 0x97, 0x85, 0x77, 0x86, 0x66, 0x57, 0x87, 0x96,
    0x56, 0x56, 0x67, 0x57, 0x75, 0x76, 0x58, 0x66, 0x86, 0x79,
    0x69, 0x97, 0x58, 0x88, 0x68, 0x58, 0x86, 0x57, 0x55, 0x68,
    0x77, 0x98, 0x78, 0x65, 0x88, 0x88, 0x96, 0x67, 0x68, 0x79,
    0x76, 0x86, 0x78, 0x66, 0x86, 0x97, 0x65, 0x75, 0x56, 0x66,
    0x59, 0x87, 0x95, 0x77, 0x87, 0x78, 0x89, 0x58, 0x88, 0x96,
    0x68, 0x76, 0x78, 0x76, 0x58, 0x86, 0x55, 0x58, 0x69, 0x78,
    0x69, 0x76, 0x88, 0x65, 0x67, 0x86, 0x76, 0x87, 0x59, 0x68,
    0x56, 0x56, 0x96, 0x75, 0x77, 0x77, 0x55, 0x89, 0x66, 0x77,
    0x78, 0x56, 0x58, 0x78, 0x77, 0x89, 0x85, 0x65, 0x76, 0x68,
    0x85, 0x76, 0x85, 0x68, 0x59, 0x85, 0x75, 0x75, 0x78, 0x97,
    0x87, 0x75, 0x67, 0x59, 0x76, 0x98, 0x88, 0x68, 0x76, 0x67,
    0x79, 0x97, 0x98, 0x66, 0x89, 0x66, 0x57, 0x58, 0x97, 0x76,
    0x59, 0x76, 0x95, 0x69, 0x96, 0x89, 0x66, 0x87, 0x68, 0x78,
    0x57, 0x57, 0x78, 0x68, 0x78, 0x97, 0x68, 0x65, 0x67, 0x75,
    0x79, 0x78, 0x78, 0x78, 0x86, 0x87, 0x67, 0x76, 0x88, 0x95,
    0x76, 0x58, 0x56, 0x96, 0x78, 0x66, 0x77, 0x96, 0x96, 0x66,
    0x85, 0x98, 0x67, 0x68, 0x68, 0x67, 0x65, 0x77, 0x85, 0x99,
    0x95, 0x85, 0x68, 0x77, 0x86, 0x58, 0x98, 0x78, 0x89, 0x87,
    0x78, 0x86, 0x98, 0x87, 0x86, 0x76, 0x76, 0x66, 0x66, 0x66,
    0x77, 0x88, 0x78, 0x67, 0x66, 0x86, 0x66, 0x85, 0x68, 0x58,
    0x89, 0x78, 0x68, 0x57, 0x57, 0x88, 0x65, 0x75, 0x89, 0x78,
    0x87, 0x56, 0x66, 0x65, 0x86, 0x67, 0x87, 0x88, 0x98, 0x78,
    0x86, 0x56, 0x97, 0x78, 0x75, 0x68, 0x57, 0x78, 0x58, 0x58,
    0x79, 0x65, 0x95, 0x58, 0x87, 0x68, 0x76, 0x86, 0x68, 0x96,
    0x79, 0x66, 0x76, 0x97, 0x88, 0x75, 0x78, 0x77, 0x88, 0x76,
    0x76, 0x57, 0x75, 0x56, 0x66, 0x96, 0x78, 0x78, 0x77, 0x98,
    0x65, 0x68, 0x88, 0x99, 0x85, 0x55, 0x76, 0x97, 0x69, 0x95,
    0x77, 0x56, 0x56, 0x87, 0x89, 0x86, 0x86, 0x87, 0x57, 0x66,
    0x77, 0x85, 0x96, 0x75, 0x67, 0x58, 0x68, 0x67, 0x88, 0x86,
    0x56, 0x67, 0x86, 0x55, 0x77, 0x67, 0x56, 0x66, 0x89, 0x87,
    0x66, 0x76, 0x79, 0x68, 0x86, 0x67, 0x89, 0x75, 0x86, 0x57,
    0x79, 0x78, 0x69, 0x56, 0x87, 0x69, 0x86, 0x76, 0x79, 0x68,
    0x86, 0x89, 0x88, 0x65, 0x56, 0x85, 0x89, 0x96, 0x95, 0x78,
    0x87, 0x67, 0x86, 0x86, 0x77, 0x78, 0x98, 0x65, 0x58, 0x56,
    0x97, 0x76, 0x89, 0x85, 0x79, 0x59, 0x95, 0x87, 0x88, 0x77,
    0x57, 0x67, 0x55, 0x87, 0x66, 0x98, 0x86, 0x78, 0x88, 0x67,
    0x65, 0x98, 0x85, 0x87, 0x76, 0x66, 0x56, 0x59, 0x97, 0x55,
    0x86, 0x86, 0x89, 0x65, 0x76, 0x68, 0x86, 0x68, 0x67, 0x58,
    0x56, 0x76, 0x78, 0x96, 0x88, 0x58, 0x77, 0x88, 0x89, 0x88,
    0x65, 0x67, 0x97, 0x77, 0x65, 0x95, 0x56, 0x79, 0x78, 0x88,
    0x56, 0x56, 0x89, 0x76, 0x66, 0x96, 0x78, 0x55, 0x86, 0x88,
    0x77, 0x87, 0x88, 0x67, 0x86, 0x86, 0x77, 0x77, 0x86, 0x67,
    0x78, 0x68, 0x66, 0x98, 0x78, 0x58, 0x76, 0x76, 0x67, 0x66,
    0x56, 0x78, 0x78, 0x86, 0x86, 0x59, 0x78, 0x57, 0x86, 0x85,
    0x57, 0x89, 0x58, 0x68, 0x86, 0x75, 0x76, 0x88, 0x78, 0x68,
    0x66, 0x86, 0x65, 0x77, 0x68, 0x88, 0x89, 0x88, 0x88, 0x89,
    0x87, 0x77, 0x85, 0x67, 0x77, 0x88, 0x88, 0x76, 0x67, 0x77,
    0x76, 0x67, 0x87, 0x78, 0x79, 0x69, 0x67, 0x65, 0x85, 0x79,
    0x77, 0x65, 0x87, 0x68, 0x98, 0x77, 0x69, 0x96, 0x65, 0x77,
    0x98, 0x57, 0x76, 0x99, 0x56, 0x88, 0x68, 0x85, 0x58, 0x69,
    0x56, 0x65, 0x76, 0x57, 0x65, 0x99, 0x65, 0x76, 0x76, 0x88,
    0x65, 0x99, 0x67, 0x88, 0x65, 0x58, 0x76, 0x66, 0x68, 0x67,
    0x66, 0x65, 0x65, 0x67, 0x76, 0x67, 0x86, 0x77, 0x97, 0x69,
    0x88, 0x89, 0x97, 0x68, 0x77, 0x98, 0x65, 0x66, 0x57, 0x65,
    0x57, 0x98, 0x87, 0x75, 0x76, 0x87, 0x88, 0x86, 0x68, 0x66,
    0x66, 0x66, 0x86, 0x95, 0x87, 0x99, 0x78, 0x76, 0x87, 0x77,
    0x78, 0x65, 0x88, 0x65, 0x86, 0x66, 0x68, 0x99, 0x95, 0x75,
    0x67, 0x66, 0x78, 0x76, 0x77, 0x75, 0x98, 0x88, 0x87, 0x85,
    0x86, 0x85, 0x85, 0x76, 0x55, 0x65, 0x87, 0x87, 0x66, 0x88,
    0x97, 0x97, 0x97, 0x66, 0x98, 0x66, 0x66, 0x76, 0x68, 0x67,
    0x99, 0x66, 0x77, 0x95, 0x89, 0x88, 0x77, 0x97, 0x99, 0x87,
    0x89, 0x67, 0x87, 0x85, 0x68, 0x77, 0x96, 0x69, 0x68, 0x77,
    0x86, 0x77, 0x85, 0x88, 0x98, 0x77, 0x76, 0x79, 0x79, 0x56,
    0x98, 0x96, 0x89, 0x96, 0x69, 0x76, 0x69, 0x88, 0x97, 0x65,
    0x77, 0x66, 0x98, 0x99, 0x86, 0x78, 0x87, 0x86, 0x78, 0x85,
    0x67, 0x96, 0x77, 0x89, 0x87, 0x87, 0x88, 0x78, 0x88, 0x79,
    0x68, 0x86, 0x78, 0xa7, 0x79, 0x68, 0x79, 0x96, 0x89, 0x78,
    0x76, 0x75, 0x75, 0x78, 0xa9, 0x78, 0x77, 0x87, 0x96, 0x96,
    0x96, 0x85, 0x99, 0x77, 0x76, 0x68, 0x76, 0x78, 0x67, 0x89,
    0x69, 0x76, 0x97, 0xa8, 0x75, 0x68, 0x96, 0x98, 0x79, 0x77,
    0x88, 0x87, 0x69, 0x56, 0x98, 0x65, 0x77, 0x88, 0x67, 0x68,
    0x97, 0xa6, 0x97, 0x77, 0x76, 0x97, 0x86, 0x67, 0x56, 0x55,
    0x89, 0x67, 0x85, 0x56, 0x98, 0x98, 0x86, 0x99, 0x66, 0x69,
    0x79, 0x95, 0x97, 0x58, 0x97, 0x75, 0x67, 0x87, 0x69, 0x99,
    0x87, 0x86, 0x66, 0x58, 0x68, 0x85, 0x76, 0x76, 0x75, 0x78,
    0x87, 0x88, 0x56, 0x58, 0x88, 0x98, 0x65, 0x69, 0x77, 0x79,
    0x68, 0x78, 0x68, 0x87, 0x67, 0x67, 0x59, 0x67, 0x77, 0x77,
    0x98, 0x77, 0x77, 0x67, 0x79, 0x85, 0x99, 0x69, 0x75, 0x89,
    0x78, 0x85, 0x65, 0x78, 0x57, 0x66, 0x96, 0x78, 0x96, 0x67,
    0x76, 0x86, 0x87, 0x86, 0x68, 0x86, 0x79, 0x56, 0x58, 0x97,
    0x88, 0x55, 0x68, 0x75, 0x68, 0x66, 0x57, 0x88, 0x68, 0x87,
    0x67, 0x99, 0x87, 0x95, 0x78, 0x66, 0x88, 0x68, 0x55, 0x97,
    0x85, 0x69, 0x56, 0x8a, 0x85, 0x86, 0x87, 0x77, 0x68, 0x66,
    0x68, 0x79, 0x78, 0x68, 0x76, 0x57, 0x76, 0x77, 0x99, 0x79,
    0x86, 0x88, 0x68, 0x79, 0x67, 0x78, 0x89, 0x59, 0x78, 0x77,
    0x86, 0x86, 0x79, 0x67, 0x78, 0x99, 0x65, 0x95, 0x78, 0x88,
    0x78, 0x58, 0x59, 0x67, 0x69, 0x87, 0x78, 0x59, 0x87, 0x95,
    0x68, 0x96, 0x97, 0x86, 0x5a, 0x88, 0x67, 0x69, 0x55, 0x77,
    0x96, 0x86, 0x65, 0x78, 0x8a, 0x74, 0x98, 0x58, 0x98, 0x85,
    0x56, 0x77, 0x78, 0x58, 0x59, 0x66, 0x96, 0xa6, 0x97, 0x77,
    0x58, 0x77, 0x98, 0x77, 0x95, 0x97, 0x78, 0x86, 0x99, 0x58,
    0x66, 0x66, 0xa7, 0x86, 0x85, 0x76, 0x87, 0x96, 0xa7, 0x65,
    0x76, 0x97, 0x76, 0x87, 0xa5, 0x67, 0x87, 0x88, 0x79, 0x85,
    0x89, 0x86, 0x7a, 0x76, 0x97, 0x76, 0x68, 0x75, 0x69, 0x88,
    0x68, 0x66, 0x65, 0x97, 0x96, 0x88, 0x75, 0x66, 0x68, 0xa7,
    0x77, 0x67, 0x77, 0x77, 0x76, 0x78, 0x98, 0x58, 0x87, 0x56,
    0x77, 0x85, 0x79, 0x55, 0x67, 0x79, 0x57, 0x55, 0x67, 0x67,
    0x57, 0x86, 0x78, 0x75, 0x75, 0x65, 0x65, 0x68, 0x96, 0x65,
    0x98, 0x76, 0x97, 0x97, 0x77, 0x77, 0x99, 0x98, 0x76, 0x89,
    0x88, 0x89, 0x88, 0x56, 0x79, 0x99, 0x86, 0x76, 0x57, 0x87,
    0x69, 0x68, 0x86, 0x78, 0x55, 0x79, 0x88, 0x87, 0x87, 0x77,
    0x67, 0x88, 0x87, 0x56, 0x68, 0x74, 0x59, 0x77, 0x77, 0x55,
    0x45, 0x65, 0x56, 0x57, 0x79, 0x65, 0x57, 0x56, 0x76, 0x85,
    0x59, 0x59, 0x66, 0x85, 0x57, 0x65, 0x89, 0x87, 0x85, 0x77,
    0x59, 0x69, 0x49, 0x57, 0x85, 0x75, 0x66, 0x77, 0x77, 0xa5,
    0x69, 0x95, 0x6a, 0x68, 0x57, 0x58, 0x87, 0x65, 0x78, 0x77,
    0x99, 0x65, 0xa6, 0xa8, 0x65, 0x87, 0x38, 0x56, 0x88, 0x59,
    0x68, 0x97, 0x88, 0x95, 0x78, 0x47, 0x47, 0x95, 0x97, 0x76,
    0x86, 0x66, 0x58, 0x66, 0x54, 0x66, 0x67, 0x8a, 0x99, 0x95,
    0x77, 0x49, 0x55, 0x76, 0x78, 0x86, 0x94, 0x66, 0x67, 0x85,
    0x77, 0x79, 0x67, 0x79, 0x78, 0x97, 0x66, 0x66, 0x46, 0x99,
    0x86, 0x78, 0x87, 0x59, 0x79, 0x69, 0x64, 0x6a, 0x98, 0x8a,
    0x89, 0xa5, 0x77, 0x78, 0x76, 0x8b, 0x78, 0x78, 0xa6, 0x68,
    0x89, 0x88, 0x76, 0x77, 0x96, 0x68, 0x69, 0x94, 0x77, 0x98,
    0x76, 0x69, 0x58, 0x86, 0x95, 0x68, 0x57, 0x77, 0x85, 0x85,
    0x55, 0x75, 0x68, 0xa5, 0x67, 0x57, 0x79, 0x94, 0x49, 0x56,
    0x86, 0x77, 0x58, 0x68, 0x46, 0x58, 0x78, 0x58, 0x78, 0x85,
    0x76, 0x75, 0x77, 0x57, 0x86, 0x59, 0x95, 0x78, 0x67, 0x68,
    0x78, 0x65, 0x57, 0x87, 0x57, 0x77, 0x56, 0x69, 0x77, 0x56,
    0x95, 0x88, 0x67, 0x66, 0x87, 0x87, 0x66, 0x97, 0x98, 0x79,
    0x86, 0x66, 0x78, 0x56, 0x67, 0x68, 0x75, 0x77, 0x67, 0x56,
    0x85, 0x88, 0x77, 0x59, 0x68, 0x66, 0x76, 0x76, 0x77, 0x57,
    0x76, 0x55, 0x78, 0x53, 0x68, 0x86, 0x55, 0x68, 0x57, 0x75,
    0x47, 0x78, 0x79, 0x57, 0x67, 0x57, 0x58, 0x75, 0x87, 0x86,
    0x65, 0x87, 0x77, 0x95, 0x88, 0x65, 0x46, 0x87, 0x67, 0x55,
    0x85, 0x56, 0x65, 0x57, 0x97, 0x77, 0x98, 0x85, 0x6a, 0x58,
    0x7b, 0x57, 0x67, 0x65, 0x78, 0x78, 0x89, 0x56, 0x66, 0x76,
    0xa6, 0x57, 0x67, 0x46, 0x68, 0x65, 0x95, 0x78, 0x77, 0x79,
    0x97, 0x96, 0x76, 0x79, 0x4a, 0xb8, 0x79, 0x76, 0x89, 0x66,
    0x77, 0x86, 0x47, 0x87, 0x79, 0x99, 0x89, 0x88, 0x69, 0x67,
    0x65, 0x59, 0x68, 0x54, 0x75, 0x6a, 0x86, 0x69, 0x44, 0x78,
    0x88, 0x8b, 0x57, 0xb7, 0x48, 0xb4, 0x45, 0x6b, 0x57, 0x44,
    0x58, 0x57, 0x84, 0x57, 0x36, 0x86, 0x9a, 0x6c, 0x39, 0xb7,
    0x39, 0xa4, 0x73, 0x89, 0x46, 0x67, 0x65, 0x57, 0x95, 0x88,
    0x87, 0x55, 0x9a, 0x89, 0x48, 0x57, 0x38, 0x84, 0x66, 0x59,
    0x49, 0x44, 0x55, 0x46, 0x54, 0x85, 0x73, 0x94, 0x66, 0x68,
    0x56, 0x45, 0x49, 0x54, 0x46, 0x56, 0x48, 0x56, 0x75, 0x75,
    0x66, 0x88, 0x65, 0x57, 0x76, 0x88, 0x78, 0x58, 0x66, 0x65,
    0x96, 0x76, 0x46, 0x58, 0x68, 0x55, 0x77, 0x85, 0x86, 0x77,
    0x87, 0x86, 0x55, 0x55, 0x76, 0x76, 0x77, 0x37, 0x67, 0x78,
    0x95, 0x78, 0x58, 0x76, 0x97, 0x59, 0x87, 0x55, 0x57, 0x67,
    0x86, 0x66, 0x78, 0x78, 0x58, 0x76, 0x69, 0x75, 0x68, 0x85,
    0x84, 0x67, 0x58, 0x77, 0x86, 0x77, 0x95, 0x55, 0x77, 0x76,
    0x69, 0x94, 0x66, 0x58, 0x76, 0x85, 0x78, 0x56, 0x65, 0x97,
    0x56, 0x65, 0x98, 0x65, 0x75, 0x67, 0x68, 0x68, 0x56, 0x85,
    0x79, 0x67, 0x5b, 0x97, 0x59, 0x65, 0x66, 0x95, 0x77, 0x87,
    0x87, 0x65, 0x85, 0x7a, 0x66, 0x97, 0x79, 0x56, 0x87, 0x99,
    0x89, 0x99, 0x98, 0x97, 0x46, 0x77, 0x64, 0x97, 0x69, 0x75,
    0x68, 0x66, 0x75, 0x58, 0x76, 0x77, 0x77, 0x69, 0x78, 0xa8,
    0x68, 0x97, 0x68, 0x57, 0x79, 0xa4, 0x55, 0x58, 0x65, 0x86,
    0x55, 0x68, 0x88, 0x59, 0x79, 0x96, 0x69, 0x75, 0x49, 0xa8,
    0x79, 0xb2, 0x56, 0x47, 0x96, 0x99, 0x43, 0x75, 0x68, 0x8b,
    0x49, 0x99, 0x6a, 0x67, 0x46, 0xa8, 0x66, 0x84, 0x67, 0x49,
    0x84, 0x59, 0x44, 0x87, 0x68, 0x8b, 0x48, 0x46, 0x6a, 0x6a,
    0x52, 0x3b, 0x76, 0x66, 0x76, 0x67, 0x55, 0x56, 0x55, 0x54,
    0x97, 0x56, 0x46, 0x27, 0x76, 0x86, 0x44, 0x46, 0x36, 0x65,
    0x46, 0x57, 0x73, 0x87, 0x64, 0x96, 0x47, 0x68, 0x35, 0x56,
    0x87, 0x84, 0x46, 0x47, 0x45, 0x46, 0x68, 0x77, 0x76, 0x77,
    0x67, 0x85, 0x78, 0x65, 0x75, 0x37, 0x58, 0x55, 0x54, 0x47,
    0x66, 0x68, 0x87, 0x57, 0x88, 0x87, 0x57, 0x78, 0x65, 0x85,
    0x87, 0x55, 0x58, 0x67, 0x84, 0x46, 0x69, 0x68, 0x57, 0x85,
    0x88, 0x67, 0x66, 0x86, 0x85, 0x55, 0x68, 0x55, 0x68, 0x86,
    0x86, 0x86, 0x87, 0x77, 0x68, 0x67, 0x65, 0x58, 0x84, 0x87,
    0x55, 0x78, 0x76, 0x69, 0x86, 0x76, 0x66, 0x59, 0x79, 0x79,
    0x69, 0x87, 0x57, 0x87, 0x56, 0x97, 0x77, 0x86, 0x79, 0x66,
    0x87, 0x57, 0x88, 0x68, 0x87, 0x77, 0x79, 0x79, 0x68, 0x98,
    0x89, 0x77, 0x79, 0x89, 0x76, 0x59, 0x78, 0x57, 0x99, 0x75,
    0x47, 0x37, 0x56, 0x58, 0x58, 0x59, 0x57, 0x65, 0x75, 0x65,
    0x86, 0x87, 0x89, 0x65, 0x56, 0x96, 0x68, 0x75, 0x58, 0x56,
    0x58, 0x75, 0x69, 0x67, 0x67, 0x79, 0x77, 0x86, 0x48, 0x68,
    0x74, 0x47, 0x78, 0xa6, 0x77, 0x66, 0x45, 0x55, 0x74, 0x76,
    0x56, 0x87, 0x79, 0x57, 0x87, 0x59, 0x46, 0x89, 0xa7, 0xb1,
    0x59, 0x65, 0x47, 0x67, 0x34, 0x76, 0x69, 0x7a, 0x68, 0x69,
    0x99, 0x59, 0x26, 0x89, 0x69, 0x95, 0x77, 0x46, 0xa6, 0x89,
    0x64, 0x96, 0x77, 0x88, 0x77, 0x49, 0x68, 0xa7, 0x74, 0x29,
    0x67, 0x68, 0x66, 0x66, 0x93, 0x89, 0x85, 0x97, 0x99, 0x89,
    0x75, 0x36, 0x65, 0x88, 0x84, 0x46, 0x87, 0x88, 0x77, 0x77,
    0x55, 0x57, 0x74, 0x75, 0x85, 0x86, 0x86, 0x59, 0x77, 0x87,
    0x76, 0x57, 0x58, 0x57, 0x75, 0x88, 0x56, 0x87, 0x85, 0x77,
    0x55, 0x64, 0x56, 0x39, 0x85, 0x67, 0x84, 0x38, 0x78, 0x88,
    0x69, 0x86, 0x78, 0x87, 0x87, 0x65, 0x68, 0x78, 0x87, 0x68,
    0x76, 0x88, 0x86, 0x58, 0x66, 0x86, 0x87, 0x78, 0x78, 0x57,
    0x58, 0x99, 0x76, 0x68, 0x79, 0x67, 0x68, 0x66, 0x86, 0x76,
    0x66, 0x55, 0x67, 0x68, 0x47, 0x55, 0x65, 0x85, 0x86, 0x76,
    0x85, 0x67, 0x67, 0x76, 0x78, 0x87, 0x65, 0x89, 0x66, 0x98,
    0x58, 0x98, 0x6a, 0x88, 0x75, 0x88, 0x57, 0x85, 0x77, 0x65,
    0x86, 0x98, 0x68, 0x96, 0x48, 0x95, 0x67, 0x65, 0x67, 0x56,
    0x47, 0x87, 0x79, 0x47, 0x98, 0x78, 0x79, 0x66, 0x89, 0x76,
    0x59, 0x77, 0x56, 0x68, 0x66, 0x58, 0x67, 0x66, 0x68, 0x67,
    0x86, 0x49, 0x79, 0x65, 0x87, 0x75, 0x89, 0x84, 0x59, 0x77,
    0x69, 0x68, 0x55, 0x67, 0x97, 0x77, 0x79, 0x8a, 0x98, 0x96,
    0xa7, 0xa5, 0x78, 0x58, 0x57, 0x85, 0x57, 0x69, 0x56, 0x59,
    0xa7, 0x76, 0xa9, 0x38, 0x47, 0x77, 0x88, 0xb4, 0x99, 0x56,
    0x78, 0x77, 0x57, 0x67, 0x76, 0x7a, 0x96, 0xa9, 0x97, 0x79,
    0x45, 0x7a, 0xa5, 0xa6, 0x88, 0x68, 0x55, 0x75, 0x55, 0x67,
    0x77, 0x55, 0x65, 0x49, 0x65, 0x6a, 0x65, 0x45, 0x77, 0x77,
    0x79, 0x58, 0x57, 0x86, 0x55, 0x78, 0x56, 0x64, 0x68, 0x87,
    0x55, 0x46, 0x87, 0x75, 0x67, 0x79, 0x98, 0x65, 0x55, 0x77,
    0x76, 0x77, 0x45, 0x85, 0x75, 0x87, 0x56, 0x65, 0x86, 0x64,
    0x67, 0x76, 0x67, 0x56, 0x58, 0x77, 0x78, 0x78, 0x57, 0x75,
    0x78, 0x76, 0x65, 0x56, 0x65, 0x78, 0x87, 0x57, 0x89, 0x88,
    0x56, 0x99, 0x95, 0x55, 0x77, 0x65, 0x66, 0x75, 0x89, 0x86,
    0x56, 0x75, 0x76, 0x57, 0x66, 0x88, 0x98, 0x66, 0x87, 0x86,
    0x66, 0x87, 0x95, 0x78, 0x86, 0x87, 0x76, 0x89, 0x57, 0x56,
    0x87, 0x86, 0x88, 0x74, 0x95, 0x57, 0x55, 0x95, 0x88, 0x85,
    0x66, 0x95, 0x65, 0x85, 0x77, 0x99, 0x67, 0x88, 0x98, 0x79,
    0x79, 0x76, 0x56, 0x89, 0x67, 0x59, 0x78, 0x76, 0x79, 0x66,
    0x78, 0x79, 0x99, 0x97, 0x78, 0x65, 0x87, 0x99, 0xa8, 0x69,
    0x68, 0x97, 0x86, 0x87, 0x55, 0xa6, 0x79, 0x78, 0x67, 0x88,
    0x79, 0x65, 0x67, 0x98, 0x95, 0x76, 0x77, 0x78, 0x65, 0x76,
    0x97, 0x74, 0x77, 0x57, 0x98, 0x66, 0x58, 0x87, 0x9a, 0x95,
    0x65, 0x88, 0xa9, 0x96, 0x98, 0x87, 0x88, 0x75, 0x95, 0x88,
    0xa7, 0x87, 0x59, 0x88, 0x8a, 0x68, 0x96, 0x67, 0xa6, 0xa8,
    0x99, 0x59, 0x88, 0x88, 0x98, 0xa6, 0xa8, 0x78, 0x59, 0x88,
    0x85, 0x7a, 0x87, 0x56, 0xa6, 0xa6, 0x89, 0x7a, 0x68, 0xa7,
    0xa8, 0xa6, 0x65, 0x68, 0x49, 0x58, 0x74, 0x95, 0x66, 0x67,
    0x83, 0x97, 0x74, 0x45, 0x58, 0x87, 0x89, 0xa6, 0x76, 0x89,
    0x69, 0x77, 0x57, 0x68, 0x68, 0x77, 0x69, 0x99, 0x97, 0x96,
    0x69, 0x97, 0x58, 0x67, 0x66, 0x55, 0x75, 0x57, 0x75, 0x69,
    0x58, 0x55, 0x66, 0x76, 0x76, 0x66, 0x79, 0x89, 0x87, 0x68,
    0x56, 0x76, 0x96, 0x57, 0x77, 0x64, 0x87, 0x55, 0x77, 0x78,
    0x55, 0x86, 0x75, 0x48, 0x76, 0x86, 0x87, 0x86, 0x68, 0x87,
    0x78, 0x87, 0x98, 0x69, 0x96, 0x86, 0x77, 0x66, 0x66, 0x79,
    0x77, 0x87, 0x57, 0x77, 0x86, 0x89, 0x66, 0x96, 0x85, 0x85,
    0x87, 0x67, 0x58, 0x65, 0x79, 0x68, 0x78, 0x87, 0x65, 0x77,
    0x67, 0x88, 0x8a, 0x68, 0x89, 0x77, 0x86, 0x65, 0x67, 0x77,
    0x85, 0x96, 0x75, 0x67, 0x76, 0xa5, 0x57, 0x76, 0x8b, 0x58,
    0x85, 0x68, 0x97, 0x75, 0x76, 0x59, 0x99, 0x68, 0x88, 0x76,
    0x77, 0x97, 0x88, 0x66, 0xa8, 0x58, 0x64, 0x98, 0x98, 0xa8,
    0x68, 0x85, 0x97, 0x84, 0x57, 0x4a, 0x68, 0x87, 0x88, 0x77,
    0x87, 0x88, 0x98, 0x86, 0x76, 0x77, 0x95, 0xa7, 0x6a, 0x86,
    0x76, 0x79, 0x76, 0xa7, 0x89, 0x97, 0x99, 0x97, 0x86, 0x69,
    0x86, 0x89, 0x67, 0x75, 0x76, 0x96, 0x88, 0x48, 0x97, 0x78,
    0x67, 0xa7, 0x9b, 0x67, 0x67, 0x96, 0xa7, 0x87, 0x89, 0x48,
    0x89, 0x76, 0x89, 0x88, 0x76, 0x98, 0x86, 0x88, 0x95, 0x66,
    0x96, 0x88, 0xa8, 0xb7, 0x55, 0x98, 0x67, 0x88, 0x69, 0x65,
    0x98, 0x66, 0x95, 0x77, 0x97, 0x78, 0x76, 0x96, 0x86, 0x95,
    0x99, 0x77, 0x5a, 0xb7, 0xa9, 0x65, 0x78, 0x69, 0x56, 0x58,
    0x95, 0x86, 0x88, 0x78, 0x87, 0x88, 0x77, 0x65, 0x96, 0x89,
    0x76, 0x85, 0x68, 0x88, 0x77, 0x68, 0x78, 0x66, 0x67, 0x65,
    0x85, 0x88, 0x67, 0x68, 0x68, 0x65, 0x89, 0x68, 0x69, 0x65,
    0x97, 0x75, 0x79, 0x76, 0x67, 0x76, 0x86, 0x87, 0x89, 0x86,
    0x97, 0x65, 0x65, 0x79, 0x59, 0x76, 0x78, 0x68, 0x69, 0x96,
    0x87, 0x86, 0x58, 0x65, 0x95, 0x97, 0x67, 0x68, 0x86, 0x86,
    0x66, 0x75, 0x68, 0x78, 0x66, 0x58, 0x89, 0x86, 0x59, 0x87,
    0x66, 0x99, 0x87, 0x87, 0x97, 0x77, 0x98, 0x97, 0x88, 0x85,
    0x69, 0x57, 0x77, 0x56, 0x66, 0x66, 0x98, 0x69, 0x67, 0x56,
    0x96, 0x68, 0x86, 0xa8, 0x9a, 0x76, 0x69, 0x86, 0x98, 0x75,
    0x75, 0x88, 0x67, 0xa7, 0x67, 0x77, 0x96, 0x99, 0x77, 0x98,
    0xa9, 0x86, 0xa6, 0x96, 0x85, 0x79, 0x85, 0x78, 0x85, 0xa7,
    0xa8, 0x89, 0x77, 0x78, 0xb7, 0x78, 0x69, 0x66, 0x85, 0x69,
    0x67, 0x78, 0x97, 0x87, 0x69, 0x76, 0x88, 0x89, 0xa5, 0x78,
    0x79, 0x75, 0x79, 0x88, 0x75, 0x86, 0xa8, 0x56, 0x87, 0xa9,
    0x95, 0x88, 0x65, 0x96, 0x77, 0x57, 0x67, 0x78, 0x87, 0x78,
    0x85, 0x68, 0x97, 0x67, 0x89, 0x69, 0x68, 0x86, 0x78, 0x79,
    0x78, 0x77, 0x76, 0x67, 0x77, 0x88, 0x87, 0x55, 0x77, 0x96,
    0x56, 0x89, 0x68, 0x57, 0x67, 0x57, 0x95, 0x99, 0xa6, 0x56,
    0x78, 0x89, 0x76, 0x67, 0x88, 0x89, 0xa7, 0x78, 0x79, 0x88,
    0x87, 0x78, 0x99, 0x79, 0x98, 0x86, 0x97, 0x79, 0x86, 0x57,
    0x77, 0x87, 0xa6, 0x77, 0x77, 0x87, 0x97, 0x66, 0xa6, 0xa6,
    0x88, 0x56, 0x66, 0x86, 0x76, 0x89, 0x95, 0x77, 0x96, 0x99,
    0xa8, 0x99, 0x69, 0x96, 0x78, 0x96, 0x98, 0x97, 0x8a, 0x76,
    0x78, 0x86, 0x79, 0x77, 0x68, 0x88, 0xa6, 0x97, 0x69, 0x77,
    0x76, 0x97, 0x78, 0x57, 0x58, 0x89, 0x66, 0x77, 0x97, 0x66,
    0x68, 0x89, 0x67, 0x86, 0x67, 0x86, 0x57, 0x68, 0x69, 0x77,
    0x68, 0x87, 0x96, 0x76, 0x57, 0x66, 0x65, 0x89, 0x87, 0x98,
    0x87, 0x77, 0x87, 0x67, 0x96, 0x86, 0x86, 0x97, 0x79, 0x69,
    0x99, 0x96, 0x78, 0x89, 0x89, 0x56, 0x58, 0x66, 0x67, 0x77,
    0x78, 0x89, 0xa7, 0x78, 0x75, 0x86, 0x9a, 0x75, 0x79, 0x96,
    0x66, 0x96, 0x78, 0x86, 0x67, 0x58, 0x77, 0x49, 0x87, 0x79,
    0x68, 0x58, 0x86, 0x79, 0x99, 0x98, 0x79, 0x85, 0x67, 0x79,
    0x85, 0x96, 0x66, 0x47, 0x58, 0x86, 0x67, 0x86, 0x89, 0x69,
    0x67, 0x87, 0x78, 0x86, 0x56, 0x6a, 0x58, 0x88, 0x88, 0x76,
    0x77, 0x76, 0x65, 0x55, 0x86, 0x86, 0x59, 0x85, 0x58, 0xa9,
    0x76, 0x88, 0x67, 0x99, 0x96, 0x75, 0x65, 0x5a, 0x65, 0x66,
    0xa5, 0x76, 0x76, 0x66, 0x84, 0x87, 0x55, 0x59, 0x67, 0x8a,
    0x68, 0x77, 0x76, 0x97, 0x76, 0x67, 0x89, 0x89, 0x65, 0x87,
    0x75, 0x98, 0x78, 0x89, 0x97, 0x79, 0xb6, 0x78, 0x87, 0x58,
    0x76, 0x74, 0xa9, 0x79, 0x86, 0x56, 0x65, 0x99, 0xa6, 0x4a,
    0x87, 0x99, 0x89, 0x55, 0x76, 0x96, 0x98, 0x96, 0x76, 0x76,
    0x87, 0xa7, 0x97, 0x78, 0x98, 0x5a, 0x98, 0x77, 0x87, 0x57,
    0x95, 0x69, 0x88, 0x79, 0x96, 0x77, 0x77, 0xa7, 0x77, 0x98,
    0x97, 0x87, 0x67, 0x78, 0x88, 0x79, 0x88, 0x75, 0x97, 0x76,
    0x97, 0x78, 0x88, 0x98, 0x96, 0x96, 0x67, 0x87, 0x68, 0x76,
    0x68, 0x76, 0x95, 0x66, 0x79, 0x75, 0x95, 0x56, 0x86, 0x77,
    0x88, 0x78, 0x87, 0x87, 0x88, 0x76, 0x67, 0x65, 0x67, 0x66,
    0x87, 0x87, 0x67, 0x57, 0x56, 0x56, 0x96, 0x87, 0x65, 0x88,
    0x65, 0x89, 0x79, 0x86, 0xa7, 0x68, 0x57, 0x68, 0x88, 0x78,
    0x87, 0x78, 0x76, 0x68, 0x79, 0x88, 0x68, 0x54, 0x87, 0x68,
    0x68, 0x78, 0x95, 0x57, 0x88, 0x59, 0x87, 0x65, 0x78, 0x66,
    0x56, 0x88, 0x77, 0x75, 0x48, 0x46, 0x56, 0x96, 0x54, 0x66,
    0x78, 0x86, 0x78, 0x66, 0x77, 0x46, 0x75, 0x55, 0x46, 0x55,
    0x48, 0x79, 0x75, 0x66, 0x57, 0x57, 0x48, 0x67, 0x76, 0x68,
    0x65, 0x57, 0x45, 0x86, 0x56, 0x74, 0x49, 0x96, 0x88, 0x87,
    0x48, 0x66, 0x56, 0x86, 0x58, 0x57, 0x56, 0x56, 0x74, 0x55,
    0x47, 0x55, 0x67, 0x46, 0x64, 0x56, 0x65, 0x87, 0x45, 0x74,
    0x66, 0x57, 0x86, 0x75, 0x56, 0x75, 0x68, 0x69, 0x89, 0x58,
    0x57, 0x66, 0x68, 0x77, 0x48, 0x95, 0x86, 0x59, 0x69, 0x77,
    0x67, 0x58, 0x68, 0x69, 0x79, 0x76, 0x67, 0x77, 0x99, 0x84,
    0x77, 0x98, 0x77, 0x97, 0x64, 0x86, 0x95, 0x68, 0x77, 0x88,
    0x85, 0x79, 0xa7, 0x56, 0x97, 0x97, 0xa8, 0x59, 0xa9, 0x88,
    0x88, 0x87, 0x89, 0x57, 0x79, 0x68, 0x97, 0x78, 0x67, 0x88,
    0x85, 0x88, 0x96, 0x77, 0x79, 0x99, 0x86, 0x87, 0x79, 0xa6,
    0x87, 0x77, 0x99, 0x58, 0x98, 0x58, 0x68, 0x87, 0x68, 0x65,
    0x75, 0x56, 0x66, 0x67, 0x98, 0x67, 0x68, 0x95, 0x77, 0x77,
    0x67, 0x78, 0x96, 0x75, 0x77, 0x97, 0x88, 0x66, 0x67, 0x97,
    0x85, 0x75, 0x58, 0x88, 0x88, 0x67, 0x69, 0x89, 0x89, 0x65,
    0x99, 0x68, 0x96, 0x88, 0x76, 0x68, 0x76, 0x88, 0x66, 0x76,
    0x68, 0x97, 0x55, 0x55, 0x76, 0x67, 0x86, 0x78, 0x69, 0x78,
    0x57, 0x88, 0x69, 0x66, 0x55, 0x65, 0x68, 0x88, 0x67, 0x86,
    0x65, 0x57, 0x67, 0x88, 0x78, 0x77, 0x86, 0x56, 0x76, 0x65,
    0x75, 0x67, 0x79, 0x65, 0x78, 0x74, 0x66, 0x78, 0x57, 0x68,
    0x68, 0x59, 0x66, 0x56, 0x76, 0x85, 0x58, 0x88, 0x78, 0x76,
    0x48, 0x68, 0x76, 0x75, 0x58, 0x57, 0x85, 0x57, 0x77, 0x56,
    0x86, 0x55, 0x76, 0x96, 0x66, 0x78, 0x58, 0x67, 0x88, 0x67,
    0x78, 0x67, 0x86, 0x55, 0x55, 0x55, 0x75, 0x66, 0x77, 0x77,
    0x87, 0x86, 0x66, 0x76, 0x76, 0x76, 0x97, 0x66, 0x77, 0x55,
    0x75, 0x68, 0x87, 0x96, 0x66, 0x96, 0x87, 0x75, 0x56, 0x86,
    0x66, 0x58, 0x87, 0x65, 0x75, 0x66, 0x77, 0x76, 0x75, 0x67,
    0x67, 0x67, 0x69, 0x97, 0x99, 0x76, 0x97, 0x76, 0x78, 0x69,
    0x79, 0x88, 0x66, 0xa7, 0x86, 0x98, 0x76, 0x69, 0x95, 0x86,
    0x78, 0x67, 0x88, 0x79, 0x8a, 0x68, 0x98, 0x78, 0x78, 0x79,
    0x68, 0x69, 0x75, 0x65, 0x95, 0x66, 0x88, 0x97, 0x75, 0x76,
    0x75, 0x76, 0x67, 0x96, 0x57, 0x76, 0x67, 0x86, 0x65, 0x76,
    0x79, 0x87, 0x75, 0x65, 0x87, 0x76, 0x68, 0x86, 0x86, 0x68,
    0x67, 0x98, 0x77, 0x96, 0x76, 0x67, 0x87, 0x96, 0x79, 0x96,
    0x86, 0x56, 0x97, 0x78, 0x57, 0x76, 0x56, 0x98, 0x57, 0x68,
    0x68, 0x96, 0x87, 0x97, 0x57, 0x99, 0x86, 0x86, 0x98, 0x57,
    0x65, 0x88, 0x59, 0x65, 0x67, 0x66, 0x76, 0x85, 0x58, 0x87,
    0x59, 0x67, 0x87, 0x67, 0x77, 0x85, 0x76, 0x77, 0x56, 0x98,
    0x86, 0x79, 0x98, 0x88, 0x87, 0x66, 0x88, 0x89, 0x69, 0x86,
    0x85, 0x58, 0x88, 0x89, 0x69, 0x99, 0x75, 0x87, 0x68, 0x87,
    0x66, 0x67, 0x67, 0x69, 0x67, 0x95, 0x58, 0x66, 0x77, 0x75,
    0x65, 0x76, 0x77, 0x65, 0x99, 0x68, 0x88, 0x65, 0x56, 0x87,
    0x87, 0x86, 0x96, 0x78, 0x89, 0x86, 0x67, 0x68, 0x75, 0x86,
    0x78, 0x78, 0x95, 0x66, 0x76, 0x87, 0x59, 0x86, 0x87, 0x69,
    0x78, 0x78, 0x68, 0x88, 0x56, 0x87, 0x89, 0x77, 0x87, 0x67,
    0x57, 0x87, 0x99, 0x87, 0x79, 0x67, 0x87, 0x86, 0x96, 0x79,
    0x98, 0x98, 0x69, 0x67, 0x89, 0x77, 0x68, 0x56, 0x77, 0x57,
    0x78, 0x65, 0x58, 0x86, 0x87, 0x75, 0x69, 0xa7, 0x76, 0x87,
    0x78, 0x77, 0x67, 0x88, 0x76, 0x98, 0x57, 0x66, 0x96, 0x77,
    0x87, 0x86, 0x97, 0x86, 0x57, 0x69, 0x77, 0x86, 0x79, 0x75,
    0x57, 0x76, 0x68, 0x68, 0x88, 0x68, 0x67, 0x79, 0x89, 0x87,
    0x97, 0x75, 0x98, 0x98, 0x89, 0x86, 0x95, 0x67, 0x55, 0x69,
    0x99, 0x97, 0x76, 0x86, 0x67, 0x89, 0x86, 0x76, 0x79, 0x66,
    0x98, 0x75, 0x99, 0x79, 0x56, 0x66, 0x85, 0x77, 0x77, 0x67,
    0x69, 0x85, 0x89, 0x57, 0x78, 0x86, 0x77, 0x66, 0x67, 0x77,
    0x69, 0x86, 0x85, 0x69, 0x79, 0x56, 0x87, 0x99, 0x65, 0x56,
    0x66, 0x99, 0x88, 0x87, 0x87, 0x87, 0x86, 0x75, 0x57, 0x75,
    0x79, 0x67, 0x86, 0x77, 0x56, 0x69, 0x67, 0x87, 0x58, 0x87,
    0x69, 0x67, 0x66, 0x58, 0x97, 0x66, 0x67, 0x77, 0x97, 0x79,
    0x77, 0x67, 0x76, 0x87, 0x68, 0x68, 0x77, 0x56, 0x95, 0x67,
    0x66, 0x87, 0x58, 0x87, 0x78, 0x78, 0x88, 0x77, 0x77, 0x65,
    0x85, 0x68, 0x58, 0x57, 0x78, 0x89, 0x68, 0x78, 0x89, 0x75,
    0x78, 0x97, 0x58, 0x46, 0x47, 0x69, 0x85, 0x77, 0x78, 0x99,
    0x67, 0x65, 0x47, 0x88, 0x89, 0x75, 0x96, 0xa6, 0x67, 0x99,
    0x65, 0x97, 0x6b, 0x87, 0x7a, 0x66, 0x76, 0x75, 0x89, 0x67,
    0x48, 0x77, 0x97, 0xa7, 0x48, 0x59, 0x69, 0xb7, 0x4a, 0xb6,
    0x6b, 0x79, 0x38, 0x66, 0x99, 0x78, 0x97, 0x69, 0x9a, 0xa4,
    0x98, 0x96, 0x4a, 0x77, 0x45, 0x57, 0x87, 0x89, 0x48, 0x65,
    0x47, 0xa9, 0x87, 0x64, 0x7a, 0xa5, 0x87, 0x89, 0x48, 0xa5,
    0x66, 0x65, 0x5a, 0x5a, 0x68, 0x76, 0x65, 0x6a, 0x56, 0x66,
    0x77, 0x75, 0x47, 0x58, 0x65, 0x79, 0x66, 0x86, 0x99, 0x89,
    0x56, 0x67, 0x79, 0x97, 0x69, 0x77, 0x98, 0x77, 0x68, 0x89,
    0x95, 0x98, 0x99, 0x89, 0x88, 0x66, 0x56, 0x97, 0x85, 0x75,
    0x76, 0x69, 0x96, 0x88, 0x96, 0x79, 0x67, 0x66, 0x88, 0x76,
    0x76, 0x66, 0x87, 0x96, 0x85, 0x96, 0x88, 0x86, 0x68, 0x77,
    0x99, 0x97, 0x67, 0x67, 0x77, 0x75, 0x96, 0x78, 0x77, 0x57,
    0x96, 0x57, 0x88, 0x58, 0x67, 0x87, 0x86, 0x76, 0x67, 0x86,
    0x67, 0x58, 0x96, 0x88, 0x86, 0x76, 0x96, 0x67, 0x58, 0x58,
    0x85, 0x78, 0x85, 0x57, 0x99, 0x97, 0x88, 0x97, 0x7a, 0x65,
    0x77, 0x76, 0x69, 0x67, 0x87, 0x86, 0xa7, 0x75, 0x96, 0x66,
    0x69, 0x66, 0x57, 0x67, 0x98, 0x67, 0x77, 0x57, 0x85, 0x76,
    0x87, 0x89, 0x76, 0x95, 0x68, 0x77, 0x79, 0x77, 0x75, 0x78,
    0x59, 0x67, 0x68, 0x87, 0x58, 0x49, 0x97, 0x87, 0x89, 0x76,
    0x56, 0x2a, 0x49, 0x95, 0x75, 0x98, 0x9d, 0x56, 0x45, 0x86,
    0x57, 0x38, 0xa8, 0x78, 0xab, 0xa4, 0x29, 0x4d, 0x5a, 0xc5,
    0x68, 0xa9, 0x9f, 0x67, 0x34, 0x84, 0x47, 0x2a, 0x98, 0x77,
    0xcb, 0xb2, 0x56, 0x1b, 0x37, 0xa7, 0x48, 0x65, 0x7d, 0x88,
    0x35, 0x84, 0x78, 0x5a, 0x66, 0x44, 0xab, 0xd2, 0x49, 0x45,
    0x38, 0x96, 0x35, 0x98, 0x5b, 0x68, 0x15, 0x75, 0x49, 0x87,
    0x57, 0x35, 0x6c, 0xe3, 0x68, 0x25, 0x19, 0xb6, 0x25, 0xa8,
    0x4c, 0x87, 0x14, 0x55, 0x27, 0x56, 0x69, 0x16, 0x5a, 0xb3,
    0x69, 0x76, 0x57, 0x85, 0x57, 0x77, 0x4b, 0x68, 0x25, 0x76,
    0x48, 0x57, 0x47, 0x55, 0x55, 0x77, 0x98, 0x78, 0x87, 0x89,
    0x88, 0x79, 0x5a, 0x77, 0x78, 0x68, 0x69, 0x96, 0x49, 0x79,
    0x85, 0x77, 0x65, 0x86, 0x87, 0x98, 0x88, 0x78, 0x97, 0x6a,
    0x69, 0x77, 0x96, 0x96, 0x88, 0x7a, 0x57, 0xa8, 0xa9, 0x76,
    0x87, 0x76, 0x68, 0x96, 0x77, 0x99, 0x67, 0x77, 0x69, 0x98,
    0x99, 0x88, 0x87, 0x78, 0x56, 0x77, 0x66, 0x59, 0x58, 0x69,
    0x88, 0x68, 0x88, 0x56, 0x97, 0x95, 0x76, 0x67, 0x85, 0x97,
    0x87, 0x99, 0x66, 0x76, 0x69, 0x77, 0x89, 0x96, 0x98, 0x56,
    0x69, 0x65, 0x87, 0x77, 0x86, 0x59, 0x79, 0x95, 0x66, 0x86,
    0x67, 0x85, 0x67, 0x87, 0x95, 0x76, 0x78, 0x89, 0x98, 0x89,
    0x9a, 0x68, 0x48, 0x55, 0x5a, 0x86, 0x84, 0x56, 0x89, 0x86,
    0x54, 0x54, 0x68, 0x36, 0x76, 0x84, 0x99, 0x77, 0x28, 0x59,
    0x68, 0xa8, 0xaa, 0x79, 0x7c, 0x69, 0x77, 0x74, 0x57, 0x29,
    0x97, 0x85, 0xca, 0x84, 0x18, 0x1a, 0x6a, 0xc5, 0x58, 0x89,
    0x7e, 0x67, 0x45, 0x84, 0x76, 0x28, 0x86, 0x34, 0xcc, 0xc4,
    0x16, 0x08, 0x26, 0xb5, 0x35, 0x87, 0x9d, 0x74, 0x24, 0x64,
    0x58, 0x27, 0x45, 0x35, 0x6c, 0xc4, 0x38, 0x23, 0x37, 0x93,
    0x24, 0x96, 0x3b, 0x57, 0x03, 0x67, 0x29, 0x28, 0x36, 0x07,
    0x3a, 0xc3, 0x78, 0x33, 0x38, 0x74, 0x06, 0x76, 0x3c, 0x58,
    0x07, 0x55, 0x5a, 0x37, 0x6a, 0x08, 0x17, 0x83, 0x58, 0x64,
    0x56, 0x67, 0x28, 0x97, 0x49, 0x66, 0x24, 0x87, 0x5a, 0x76,
    0x58, 0x26, 0x37, 0x77, 0x89, 0x73, 0x35, 0x69, 0x5a, 0xa5,
    0x58, 0x77, 0x67, 0x58, 0x68, 0x67, 0x76, 0x46, 0x56, 0x79,
    0x67, 0x75, 0x76, 0x88, 0x98, 0x98, 0x57, 0x66, 0xa9, 0x5a,
    0x57, 0xa5, 0x79, 0x88, 0x94, 0x67, 0x97, 0x75, 0x98, 0x96,
    0x78, 0x77, 0x75, 0x57, 0x78, 0x99, 0x75, 0x97, 0x89, 0x67,
    0x76, 0x89, 0x78, 0x97, 0x68, 0x89, 0x67, 0x87, 0x59, 0x67,
    0x78, 0x87, 0x75, 0x56, 0x86, 0x79, 0x95, 0x76, 0x69, 0x97,
    0x68, 0x68, 0x77, 0x78, 0x6a, 0x57, 0x66, 0x56, 0x56, 0x76,
    0x88, 0x87, 0x96, 0x57, 0x47, 0x68, 0x87, 0x98, 0x96, 0x56,
    0x8a, 0x66, 0x96, 0x67, 0x98, 0x75, 0x77, 0x86, 0x98, 0x86,
    0x47, 0x76, 0x79, 0xa5, 0x76, 0x59, 0x67, 0x76, 0x75, 0x74,
    0x58, 0x59, 0x76, 0x86, 0x69, 0xa7, 0x56, 0x57, 0x48, 0xa6,
    0x87, 0xaa, 0x8a, 0x58, 0x37, 0x64, 0x48, 0x37, 0x58, 0x65,
    0x7a, 0xa3, 0x56, 0x3a, 0x59, 0xc6, 0x67, 0xa8, 0x7b, 0x67,
    0x36, 0x67, 0x89, 0x16, 0x46, 0x56, 0x6b, 0xb5, 0x87, 0x53,
    0x58, 0xa4, 0x1a, 0x75, 0x5c, 0x76, 0x23, 0x77, 0xa8, 0x58,
    0x45, 0x16, 0x46, 0xb5, 0xa6, 0x66, 0x79, 0x67, 0x1a, 0x67,
    0x54, 0x74, 0x13, 0x83, 0xaa, 0x58, 0x97, 0x08, 0x2a, 0xa4,
    0x89, 0x52, 0x88, 0x56, 0x37, 0x88, 0x58, 0x89, 0x15, 0x76,
    0x69, 0x45, 0x89, 0x2a, 0x26, 0x75, 0x68, 0x64, 0x76, 0x67,
    0x2b, 0x97, 0x39, 0x87, 0x27, 0x78, 0x78, 0x74, 0x99, 0x36,
    0x37, 0x65, 0x66, 0xb3, 0x46, 0x57, 0x68, 0x87, 0x47, 0x57,
    0x47, 0x58, 0x69, 0x77, 0x96, 0x46, 0x55, 0x78, 0x49, 0xa5,
    0x67, 0x86, 0x89, 0x76, 0x67, 0x67, 0x79, 0x98, 0x48, 0x87,
    0x56, 0x87, 0x74, 0x59, 0x76, 0x65, 0x57, 0x76, 0x68, 0x66,
    0x87, 0x55, 0x88, 0x77, 0x88, 0x77, 0x57, 0x75, 0x65, 0x86,
    0x86, 0x79, 0x87, 0x68, 0x66, 0x67, 0x77, 0x99, 0x89, 0x96,
    0x57, 0x85, 0x87, 0x65, 0x85, 0x77, 0x58, 0x57, 0x56, 0x88,
    0x78, 0x86, 0x56, 0x66, 0x69, 0x87, 0x48, 0x69, 0x78, 0x55,
    0x88, 0x65, 0x56, 0x77, 0x56, 0x66, 0xa8, 0x67, 0x9a, 0x68,
    0x59, 0x75, 0x68, 0x67, 0x77, 0x67, 0x86, 0x96, 0x58, 0x69,
    0x88, 0x58, 0x97, 0x88, 0x85, 0x66, 0x77, 0x57, 0x99, 0x76,
    0x78, 0x97, 0x47, 0x85, 0xa7, 0x79, 0x65, 0x78, 0x6a, 0x89,
    0x6a, 0x75, 0x69, 0x84, 0x86, 0x47, 0x77, 0x45, 0x68, 0xa5,
    0x78, 0xc8, 0x94, 0x93, 0x6d, 0x85, 0x5c, 0x87, 0x43, 0x68,
    0xb7, 0x75, 0x96, 0x3b, 0x68, 0x87, 0x97, 0x97, 0xc6, 0x85,
    0x5b, 0xa7, 0x88, 0x84, 0x44, 0x75, 0xb7, 0x85, 0xa8, 0x49,
    0xa9, 0x76, 0x47, 0x98, 0xc7, 0x59, 0x58, 0x68, 0xa6, 0x85,
    0x88, 0x89, 0xb7, 0xa9, 0xa7, 0x4a, 0x6a, 0xa7, 0x97, 0x86,
    0xa5, 0x66, 0x68, 0xa7, 0x99, 0x65, 0x79, 0x85, 0xa8, 0x77,
    0x99, 0x59, 0x79, 0xa5, 0xa7, 0xa9, 0x85, 0x88, 0x69, 0x66,
    0x79, 0x8a, 0x79, 0x65, 0x77, 0xa5, 0xa4, 0x86, 0x8b, 0xb9,
    0x88, 0xa7, 0x57, 0x78, 0x77, 0x75, 0x86, 0x5a, 0x87, 0x88,
    0x87, 0x88, 0x99, 0x67, 0x69, 0xa7, 0x87, 0x65, 0x78, 0x68,
    0x85, 0x87, 0x67, 0x65, 0x45, 0x85, 0x56, 0x47, 0x55, 0x75,
    0x87, 0x78, 0x76, 0x67, 0x58, 0x89, 0x77, 0x68, 0x78, 0x76,
    0x55, 0x65, 0x76, 0x56, 0x66, 0x68, 0x66, 0x46, 0x87, 0x66,
    0x56, 0x65, 0x57, 0x66, 0x55, 0x76, 0x56, 0x88, 0x78, 0x78,
    0x97, 0x85, 0x86, 0x67, 0x66, 0x75, 0x87, 0x77, 0x65, 0x77,
    0x75, 0x79, 0x56, 0x56, 0x67, 0x67, 0x89, 0x86, 0x76, 0x78,
    0x67, 0x57, 0x68, 0x56, 0x67, 0x68, 0x87, 0x67, 0x68, 0x97,
    0x98, 0x66, 0x65, 0x56, 0x86, 0x75, 0xa8, 0xa7, 0x66, 0x77,
    0x4a, 0x86, 0x49, 0x87, 0x87, 0x85, 0x66, 0x88, 0x57, 0x57,
    0x75, 0x97, 0x86, 0xa9, 0x57, 0x86, 0x3c, 0x84, 0x9b, 0x89,
    0x47, 0x7a, 0xa6, 0xb6, 0x65, 0x69, 0x84, 0x87, 0x87, 0x58,
    0xa4, 0x65, 0x4b, 0x85, 0xaa, 0x67, 0x57, 0x9b, 0x99, 0xc6,
    0x5a, 0x5a, 0xa7, 0x58, 0x99, 0x6a, 0x96, 0x68, 0x79, 0x87,
    0xac, 0x56, 0x79, 0x5a, 0xaa, 0xa8, 0x96, 0x58, 0xb7, 0x9a,
    0xa8, 0xab, 0xc6, 0x97, 0x38, 0x66, 0xb5, 0x99, 0x58, 0x89,
    0xb5, 0xc8, 0xa8, 0x48, 0x6b, 0x87, 0x96, 0xc9, 0x97, 0x77,
    0x79, 0x59, 0xa7, 0x9b, 0x85, 0x86, 0x84, 0xe7, 0x86, 0x79,
    0x69, 0xa8, 0x75, 0x9a, 0xa8, 0xaa, 0x9b, 0x95, 0x98, 0x66,
    0xa8, 0x76, 0x96, 0xa6, 0x95, 0xb7, 0x87, 0xab, 0x95, 0xb9,
    0x96, 0x89, 0xaa, 0x89, 0x86, 0x95, 0xa9, 0x67, 0x98, 0x59,
    0x99, 0x98, 0x87, 0x89, 0xa6, 0xa6, 0x77, 0x65, 0x78, 0x95,
    0x98, 0x79, 0x76, 0x58, 0x77, 0x77, 0x86, 0x78, 0x67, 0xa9,
    0x68, 0x67, 0x76, 0x68, 0x66, 0x78, 0x79, 0x67, 0x88, 0x56,
    0x68, 0x57, 0x78, 0x97, 0x55, 0x67, 0x68, 0x66, 0x87, 0x67,
    0x58, 0x58, 0x97, 0x65, 0x85, 0x99, 0x56, 0x65, 0x89, 0x59,
    0x76, 0x59, 0x69, 0x68, 0x59, 0x56, 0x88, 0x79, 0x86, 0x78,
    0x55, 0x67, 0x77, 0x96, 0x67, 0x77, 0x77, 0x98, 0x78, 0x55,
    0x56, 0x68, 0x66, 0x65, 0x55, 0x77, 0x87, 0x58, 0x86, 0x96,
    0x58, 0x97, 0x75, 0x86, 0x76, 0x67, 0x77, 0x78, 0x79, 0xa6,
    0x9c, 0x96, 0x67, 0x57, 0x67, 0x77, 0x86, 0x76, 0x67, 0x87,
    0x66, 0x5a, 0x98, 0xb9, 0x8c, 0x67, 0x8a, 0x86, 0x79, 0x79,
    0x98, 0x89, 0x68, 0x68, 0xa8, 0x84, 0x76, 0x3b, 0x77, 0x87,
    0x39, 0x64, 0x97, 0x84, 0x46, 0x88, 0x98, 0xa7, 0x58, 0x2a,
    0x94, 0x56, 0x88, 0x4b, 0xa6, 0x57, 0x5a, 0x99, 0xb7, 0x66,
    0x8a, 0x6a, 0xc6, 0x89, 0x95, 0x65, 0x9a, 0xb9, 0xb8, 0x4a,
    0xb6, 0x66, 0x56, 0x45, 0xa9, 0x87, 0x65, 0x68, 0xba, 0xc7,
    0x8a, 0x66, 0x68, 0x99, 0xa7, 0x47, 0xa5, 0x86, 0x46, 0x65,
    0xa9, 0x55, 0x55, 0x58, 0x7a, 0xb7, 0x7a, 0x57, 0x89, 0x86,
    0x86, 0xc9, 0x97, 0x58, 0x9a, 0x76, 0x88, 0x87, 0x77, 0x8a,
    0x99, 0xb6, 0x78, 0x6a, 0x85, 0x46, 0x77, 0x98, 0x99, 0x99,
    0x8a, 0x98, 0x66, 0x86, 0x96, 0x78, 0x96, 0xb5, 0x77, 0xa7,
    0x98, 0x89, 0x97, 0x97, 0x86, 0x69, 0x85, 0x69, 0x96, 0x85,
    0x77, 0x88, 0x88, 0x95, 0x88, 0x69, 0x89, 0x59, 0x77, 0xa6,
    0x8a, 0x77, 0x75, 0x87, 0x89, 0x67, 0x79, 0x78, 0x88, 0x67,
    0x98, 0x96, 0x87, 0x77, 0x85, 0x99, 0x87, 0x87, 0x89, 0x59,
    0x68, 0x79, 0x79, 0x86, 0x79, 0x98, 0x55, 0x58, 0x77, 0x68,
    0x78, 0x87, 0x76, 0x68, 0x64, 0x89, 0x55, 0x66, 0x86, 0x76,
    0x79, 0x86, 0x98, 0x76, 0x68, 0x77, 0x67, 0xa8, 0x57, 0x85,
    0xa8, 0x87, 0x67, 0x67, 0x67, 0x77, 0x68, 0x87, 0x77, 0x85,
    0x56, 0x76, 0x87, 0x58, 0x88, 0x89, 0x98, 0x95, 0x88, 0x68,
    0x89, 0x57, 0x65, 0x58, 0x59, 0x99, 0x78, 0x57, 0x59, 0x39,
    0x96, 0x88, 0x78, 0x58, 0x6b, 0x64, 0x77, 0x66, 0x96, 0x48,
    0x79, 0x48, 0xa5, 0x57, 0x66, 0x3a, 0xa7, 0x96, 0x78, 0x66,
    0xab, 0x74, 0x98, 0x87, 0xa5, 0x78, 0x66, 0x78, 0x97, 0x67,
    0x85, 0x6a, 0x96, 0x56, 0x8a, 0x88, 0xb6, 0x64, 0xb7, 0x89,
    0xa9, 0x68, 0x76, 0x87, 0x75, 0x57, 0xa5, 0x95, 0xb7, 0x34,
    0x25, 0x64, 0xa4, 0x69, 0x74, 0x96, 0xa9, 0xa4, 0x76, 0x45,
    0x5a, 0x88, 0xb8, 0x84, 0xb5, 0x48, 0x67, 0x74, 0x89, 0x77,
    0x4a, 0x69, 0x98, 0xb6, 0x68, 0x27, 0x4a, 0x7a, 0x86, 0xa3,
    0xa7, 0x4a, 0x85, 0x87, 0x48, 0x7a, 0x9a, 0x6a, 0x57, 0xc9,
    0x78, 0x89, 0x76, 0xaa, 0x46, 0x79, 0x78, 0x59, 0x99, 0x87,
    0x67, 0x77, 0x9a, 0x6b, 0x77, 0x76, 0x76, 0x79, 0x74, 0x49,
    0x88, 0x59, 0xa6, 0x88, 0x99, 0x68, 0x99, 0x87, 0xa8, 0x58,
    0x79, 0x76, 0x58, 0x88, 0x96, 0x59, 0x57, 0x77, 0x67, 0x97,
    0x56, 0x88, 0x76, 0x88, 0x97, 0x99, 0x78, 0x89, 0x68, 0x76,
    0x79, 0x77, 0x66, 0x95, 0x67, 0x65, 0x87, 0x67, 0x55, 0x56,
    0x57, 0x66, 0x87, 0x56, 0x89, 0x77, 0x77, 0x86, 0x58, 0x74,
    0x45, 0x78, 0x66, 0x68, 0x68, 0x79, 0x88, 0x78, 0x87, 0x58,
    0x76, 0x75, 0x68, 0x78, 0x79, 0xa7, 0x78, 0x58, 0x66, 0x77,
    0x48, 0x67, 0x68, 0x76, 0x75, 0x66, 0x66, 0x69, 0x57, 0x79,
    0x86, 0x54, 0x79, 0x78, 0x86, 0x57, 0x46, 0x75, 0x89, 0x57,
    0x69, 0x56, 0x78, 0x85, 0x65, 0x59, 0x56, 0x67, 0x98, 0x87,
    0x89, 0x65, 0x48, 0x65, 0x68, 0x99, 0x77, 0x55, 0x66, 0x79,
    0x76, 0x76, 0x45, 0x5a, 0x89, 0x98, 0x99, 0x66, 0x5b, 0x55,
    0xb7, 0x79, 0x98, 0x98, 0x48, 0x77, 0x84, 0x79, 0x57, 0x56,
    0xa8, 0x78, 0x64, 0x56, 0x76, 0x85, 0x96, 0x79, 0x89, 0x88,
    0x66, 0x84, 0x74, 0x3a, 0x57, 0x65, 0xb7, 0x55, 0x84, 0x48,
    0x82, 0x6a, 0xa9, 0x89, 0x85, 0xb6, 0x65, 0x65, 0x37, 0x39,
    0x56, 0x45, 0xa6, 0x48, 0x84, 0x89, 0x84, 0x9a, 0xa8, 0x8a,
    0x77, 0xa8, 0x87, 0x84, 0x59, 0x7a, 0x85, 0x57, 0x69, 0x48,
    0xb4, 0x58, 0x54, 0x87, 0x99, 0x8a, 0x49, 0x78, 0x79, 0x96,
    0x67, 0x76, 0x67, 0x57, 0x58, 0x77, 0xa7, 0x57, 0x47, 0x74,
    0x77, 0x67, 0x47, 0x58, 0x76, 0x96, 0x76, 0x36, 0x76, 0x77,
    0x58, 0x89, 0x88, 0x88, 0x56, 0x77, 0x78, 0x58, 0x58, 0x47,
    0x59, 0x78, 0x65, 0x37, 0x77, 0x57, 0x76, 0x58, 0x69, 0x97,
    0x89, 0x79, 0x67, 0x56, 0x68, 0x87, 0x66, 0x87, 0x89, 0x96,
    0x66, 0x68, 0x76, 0x66, 0x87, 0x78, 0x55, 0x59, 0x96, 0x99,
    0x66, 0x98, 0x98, 0x88, 0x56, 0x88, 0x78, 0x76, 0x67, 0x75,
    0x77, 0x87, 0x85, 0x66, 0x77, 0x68, 0x76, 0x88, 0x89, 0x76,
    0x57, 0x99, 0x77, 0x75, 0x46, 0x69, 0x65, 0x76, 0x57, 0x99,
    0x59, 0x79, 0x66, 0x98, 0x59, 0x78, 0x78, 0x95, 0x78, 0x65,
    0x66, 0x85, 0x46, 0x87, 0x48, 0x78, 0x57, 0x77, 0x66, 0x67,
    0x68, 0x74, 0x67, 0x55, 0x76, 0x74, 0x59, 0x76, 0x46, 0x75,
    0x5a, 0x5a, 0x24, 0x68, 0x48, 0x96, 0x78, 0x45, 0x56, 0xa4,
    0x47, 0x6a, 0x39, 0x78, 0x65, 0x75, 0x59, 0x78, 0x44, 0x64,
    0x48, 0x55, 0x6a, 0x65, 0x96, 0x86, 0x27, 0x47, 0x4a, 0x58,
    0x95, 0x67, 0x67, 0x55, 0x46, 0x88, 0x47, 0x77, 0x47, 0xa4,
    0x98, 0xa7, 0x16, 0x36, 0x38, 0x65, 0x93, 0x66, 0x66, 0x77,
    0x99, 0x86, 0x44, 0x46, 0x77, 0x85, 0x9a, 0x69, 0x46, 0x5b,
    0x4a, 0xaa, 0xa4, 0x99, 0x58, 0x84, 0xaa, 0x55, 0x35, 0x39,
    0x86, 0xa4, 0xab, 0x69, 0x65, 0x86, 0x59, 0x69, 0x75, 0x6a,
    0x77, 0x66, 0x6a, 0x56, 0x73, 0x48, 0x75, 0x64, 0x97, 0x85,
    0x56, 0x99, 0x89, 0x67, 0x96, 0x95, 0x77, 0x74, 0x69, 0x85,
    0x55, 0x49, 0x66, 0x68, 0x86, 0x76, 0x77, 0x85, 0x67, 0x99,
    0x89, 0x87, 0x76, 0x87, 0x96, 0x78, 0x55, 0x57, 0x56, 0x57,
    0x87, 0x87, 0x65, 0x89, 0x66, 0x68, 0x65, 0x86, 0x88, 0x99,
    0x96, 0x77, 0x67, 0x86, 0x68, 0x89, 0x88, 0x66, 0x96, 0x78,
    0x57, 0x87, 0x59, 0x78, 0x88, 0x78, 0x78, 0x76, 0x75, 0x66,
    0x56, 0x55, 0x89, 0x68, 0x79, 0x67, 0x58, 0x78, 0x65, 0x57,
    0x85, 0x75, 0x75, 0x76, 0x76, 0x77, 0x68, 0x88, 0x75, 0x55,
    0x87, 0x87, 0x67, 0x55, 0x79, 0x66, 0x57, 0x76, 0x65, 0x55,
    0x76, 0x68, 0x67, 0x57, 0x66, 0x65, 0x68, 0x76, 0x69, 0x95,
    0x67, 0x67, 0x6a, 0x78, 0x65, 0x87, 0x66, 0x57, 0x86, 0x56,
    0x97, 0x87, 0x65, 0x58, 0x77, 0x76, 0x38, 0x86, 0x58, 0x87,
    0x57, 0x5a, 0x5a, 0x67, 0x97, 0x78, 0x46, 0xa3, 0x65, 0x56,
    0x39, 0x88, 0x56, 0xa5, 0x89, 0x7a, 0x66, 0x76, 0x78, 0x67,
    0x75, 0x36, 0x79, 0xa4, 0x66, 0x68, 0x59, 0x77, 0x46, 0x98,
    0x8a, 0x88, 0x57, 0x88, 0x89, 0x46, 0x76, 0x47, 0x69, 0x83,
    0x69, 0x76, 0x67, 0x97, 0x75, 0xa9, 0x58, 0x67, 0x48, 0x97,
    0x46, 0x3a, 0x77, 0x66, 0x7c, 0x97, 0x86, 0xaa, 0x5a, 0xa9,
    0x67, 0x68, 0x6a, 0x87, 0x89, 0x78, 0x56, 0x48, 0x69, 0x57,
    0x57, 0xb6, 0x58, 0x56, 0x56, 0x97, 0x67, 0x69, 0x86, 0x86,
    0x76, 0x77, 0x45, 0x56, 0x66, 0x65, 0x86, 0x85, 0x68, 0x86,
    0x97, 0x78, 0x97, 0x77, 0x76, 0x58, 0x88, 0x67, 0x75, 0x68,
    0x66, 0x67, 0x68, 0x68, 0x78, 0x75, 0x86, 0x76, 0x57, 0x95,
    0x87, 0x78, 0x58, 0x67, 0x88, 0x69, 0x88, 0x96, 0x89, 0x86,
    0x96, 0x75, 0x69, 0x75, 0x85, 0x58, 0x77, 0x78, 0x65, 0x67,
    0x55, 0x78, 0x78, 0x75, 0x79, 0x85, 0x66, 0x88, 0x88, 0x95,
    0x66, 0x78, 0x69, 0x79, 0x65, 0x75, 0x96, 0x76, 0x78, 0x95,
    0x99, 0x88, 0x67, 0x68, 0x77, 0x55, 0x79, 0x66, 0x98, 0x56,
    0x76, 0x88, 0x97, 0x85, 0x59, 0x78, 0x78, 0x68, 0x77, 0x86,
    0x68, 0x78, 0x47, 0x85, 0x54, 0x88, 0x67, 0x74, 0x57, 0x57,
    0x75, 0x67, 0x57, 0x87, 0x77, 0x57, 0x58, 0x56, 0x67, 0x89,
    0x87, 0x75, 0x78, 0x68, 0x55, 0x77, 0x76, 0x55, 0x76, 0x67,
    0x76, 0x85, 0x59, 0x69, 0x76, 0x98, 0x95, 0x85, 0x87, 0x69,
    0x67, 0x88, 0x58, 0x78, 0x68, 0x68, 0x87, 0x99, 0x76, 0x79,
    0x67, 0x8a, 0x6a, 0x97, 0x89, 0x76, 0x78, 0x67, 0x58, 0x76,
    0x76, 0x77, 0x55, 0x86, 0x79, 0x86, 0x75, 0x68, 0x75, 0x88,
    0x97, 0x58, 0x79, 0x65, 0x57, 0x98, 0x66, 0x78, 0x76, 0x54,
    0x57, 0x47, 0x85, 0x88, 0x85, 0x97, 0x49, 0x97, 0x59, 0x75,
    0x69, 0x67, 0x66, 0xa7, 0x78, 0x65, 0x47, 0x57, 0x86, 0x68,
    0x66, 0x85, 0x86, 0x87, 0x67, 0x77, 0x59, 0x58, 0x57, 0x38,
    0x66, 0x65, 0x78, 0x57, 0x74, 0x78, 0x79, 0x86, 0x47, 0x69,
    0x7a, 0x96, 0x56, 0x88, 0x56, 0x77, 0x55, 0x78, 0x58, 0x76,
    0xa7, 0x66, 0x79, 0x56, 0x7a, 0x76, 0x58, 0x95, 0x77, 0x98,
    0x85, 0x77, 0x75, 0x76, 0x68, 0x89, 0x86, 0x89, 0x77, 0x75,
    0x89, 0x68, 0x77, 0x66, 0x77, 0x67, 0x66, 0x87, 0x77, 0x78,
    0x87, 0x87, 0x57, 0x56, 0x55, 0x68, 0x86, 0x99, 0x86, 0x68,
    0x97, 0x76, 0x87, 0x89, 0x76, 0x88, 0x65, 0x95, 0x88, 0x88,
    0x86, 0x69, 0x85, 0x56, 0x95, 0x88, 0x55, 0x67, 0x65, 0x68,
    0x58, 0x85, 0x85, 0x56, 0x77, 0x88, 0x86, 0x68, 0x68, 0x68,
    0x76, 0x57, 0x87, 0x88, 0x67, 0x77, 0x87, 0x78, 0x68, 0x75,
    0x87, 0x77, 0x88, 0x75, 0x77, 0x86, 0x85, 0x65, 0x96, 0x77,
    0x75, 0x88, 0x76, 0x65, 0x88, 0x87, 0x87, 0x58, 0x97, 0x68,
    0x76, 0x86, 0x86, 0x58, 0x56, 0x68, 0x79, 0x76, 0x66, 0x89,
    0x67, 0x67, 0x58, 0x87, 0x79, 0x55, 0x68, 0x88, 0x66, 0x97,
    0x66, 0x55, 0x86, 0x78, 0x85, 0x85, 0x56, 0x89, 0x57, 0x77,
    0x67, 0x58, 0x86, 0x67, 0x87, 0x78, 0x76, 0x57, 0x66, 0x86,
    0x69, 0x66, 0x75, 0x88, 0x78, 0x66, 0x78, 0x55, 0x76, 0x68,
    0x69, 0x77, 0x56, 0x55, 0x78, 0x56, 0x77, 0x56, 0x55, 0x77,
    0x56, 0x76, 0x85, 0x77, 0x76, 0x87, 0x85, 0x87, 0x66, 0x75,
    0x78, 0x77, 0x87, 0x87, 0x66, 0x55, 0x75, 0x66, 0x66, 0x78,
    0x96, 0x78, 0x56, 0x77, 0x86, 0x85, 0x75, 0x67, 0x55, 0x66,
    0x78, 0x79, 0x98, 0x88, 0x58, 0x68, 0x77, 0x66, 0x76, 0x67,
    0x69, 0x98, 0x88, 0x58, 0x89, 0x57, 0x56, 0x86, 0x55, 0x67,
    0x67, 0x78, 0x78, 0x56, 0x88, 0x67, 0x86, 0x88, 0x86, 0x86,
    0x95, 0x55, 0x65, 0x96, 0x88, 0x58, 0x86, 0x77, 0x68, 0x86,
    0x78, 0x79, 0x76, 0x76, 0x58, 0x57, 0x58, 0x68, 0x67, 0x67,
    0x76, 0x95, 0x67, 0x56, 0x87, 0x78, 0x88, 0x98, 0x88, 0x86,
    0x87, 0x76, 0x89, 0x97, 0x69, 0x56, 0x66, 0x57, 0x55, 0x55,
    0x95, 0x86, 0x97, 0x77, 0x77, 0x79, 0x78, 0x85, 0x78, 0x65,
    0x85, 0x65, 0x85, 0x55, 0x96, 0x77, 0x67, 0x77, 0x67, 0x66,
    0x95, 0x98, 0x87, 0x69, 0x68, 0x87, 0x96, 0x77, 0x78, 0x79,
    0x65, 0x87, 0x88, 0x87, 0x88, 0x87, 0x89, 0x87, 0x55, 0x76,
    0x87, 0x87, 0x76, 0x78, 0x76, 0x89, 0x89, 0x76, 0x69, 0x97,
    0x96, 0x58, 0x78, 0x68, 0x79, 0x57, 0x78, 0x77, 0x86, 0x55,
    0x57, 0x56, 0x74, 0x66, 0x56, 0x76, 0x88, 0x86, 0x76, 0x55,
    0x66, 0x89, 0x78, 0x47, 0x55, 0x75, 0x57, 0x69, 0x95, 0x75,
    0x87, 0x66, 0x96, 0x86, 0x88, 0x78, 0x78, 0x77, 0x85, 0x77,
    0x76, 0x79, 0x64, 0x65, 0x74, 0x87, 0x78, 0x85, 0x49, 0x57,
    0x76, 0x76, 0x65, 0x75, 0x65, 0x55, 0x47, 0x57, 0x64, 0x48,
    0x56, 0x67, 0x86, 0x67, 0x75, 0x66, 0x56, 0x54, 0x57, 0x56,
    0x67, 0x36, 0x64, 0x57, 0x65, 0x85, 0x75, 0x54, 0x55, 0x56,
    0x56, 0x46, 0x66, 0x87, 0x54, 0x48, 0x57, 0x55, 0x56, 0x57,
    0x54, 0x87, 0x56, 0x86, 0x86, 0x77, 0x67, 0x55, 0x68, 0x87,
    0x77, 0x87, 0x89, 0x76, 0x78, 0x76, 0x89, 0x86, 0x57, 0x66,
    0x66, 0x95, 0x86, 0x75, 0x68, 0x79, 0x76, 0x76, 0x75, 0x87,
    0x97, 0x67, 0x77, 0x78, 0x78, 0x65, 0x98, 0x87, 0x57, 0x66,
    0x85, 0x88, 0x78, 0x69, 0x78, 0x78, 0x98, 0x66, 0x76, 0x89,
    0x68, 0x88, 0x87, 0x76, 0x98, 0x75, 0x68, 0x68, 0x76, 0x58,
    0x69, 0x69, 0x87, 0x67, 0x97, 0x69, 0x76, 0x69, 0x97, 0x78,
    0x77, 0x67, 0x77, 0x89, 0x85, 0x68, 0x65, 0x67, 0x95, 0x67,
    0x69, 0x78, 0x5a, 0x76, 0x98, 0x96, 0x88, 0x68, 0x68, 0x77,
    0x96, 0x57, 0x68, 0x86, 0x86, 0x76, 0x76, 0x88, 0x77, 0x66,
    0x67, 0x87, 0x87, 0x88, 0x87, 0x69, 0x67, 0x88, 0x95, 0x86,
    0x97, 0x78, 0xa9, 0x76, 0x96, 0x55, 0xa7, 0x67, 0xa6, 0x77,
    0x76, 0xa9, 0x85, 0x59, 0x88, 0xa8, 0xb8, 0x58, 0x97, 0x66,
    0x63, 0x84, 0x98, 0x89, 0x99, 0x78, 0xa6, 0x88, 0x58, 0x4a,
    0x79, 0x99, 0xb5, 0x57, 0xaa, 0x46, 0x84, 0x75, 0xa6, 0x68,
    0xa8, 0x98, 0x79, 0x79, 0xa5, 0x58, 0x76, 0x95, 0xa7, 0x48,
    0x77, 0x57, 0x84, 0x75, 0x89, 0x78, 0x96, 0x95, 0xb8, 0x9a,
    0x88, 0x59, 0x87, 0x85, 0x79, 0x65, 0x45, 0x79, 0x55, 0x66,
    0x76, 0x79, 0x58, 0x49, 0x86, 0x86, 0x64, 0x89, 0x67, 0xa5,
    0x67, 0x75, 0x74, 0x97, 0x68, 0x96, 0x99, 0x88, 0x66, 0x67,
    0x65, 0x94, 0x74, 0x66, 0x86, 0xa6, 0x86, 0x75, 0x67, 0x95,
    0x57, 0x58, 0x67, 0x88, 0x68, 0x87, 0x66, 0x88, 0x56, 0xa6,
    0x85, 0x89, 0x85, 0x69, 0x9a, 0x98, 0x95, 0x68, 0x79, 0x77,
    0x75, 0x65, 0x85, 0x68, 0x69, 0x79, 0xa9, 0xa8, 0x9a, 0x79,
    0x86, 0x77, 0x85, 0x89, 0x96, 0x77, 0x85, 0x5a, 0x88, 0x97,
    0x99, 0x96, 0x97, 0x97, 0x67, 0x78, 0x77, 0x77, 0x76, 0x78,
    0x75, 0x87, 0x78, 0x79, 0x68, 0x76, 0x85, 0x66, 0x77, 0x58,
    0x66, 0x97, 0x89, 0x59, 0x86, 0x65, 0x66, 0x85, 0x75, 0x67,
    0x65, 0x67, 0x75, 0x98, 0x97, 0x58, 0x67, 0x77, 0x79, 0x68,
    0x78, 0x89, 0x99, 0x66, 0x87, 0x67, 0x89, 0x68, 0x77, 0x76,
    0x98, 0x9a, 0x98, 0x88, 0x8a, 0x8a, 0x68, 0x58, 0xa7, 0x67,
    0x88, 0x76, 0x58, 0xa8, 0x85, 0x7a, 0x87, 0xaa, 0x95, 0x66,
    0x89, 0x88, 0x83, 0x76, 0xa9, 0x87, 0xa7, 0xa6, 0x66, 0x87,
    0x86, 0x7a, 0x67, 0x97, 0xa5, 0x6a, 0x76, 0x86, 0x96, 0x96,
    0xa9, 0x57, 0xa5, 0x79, 0x96, 0x88, 0x68, 0x4a, 0x67, 0x7a,
    0xa6, 0x75, 0xa7, 0x57, 0xa6, 0x64, 0xaa, 0x87, 0xb6, 0xa9,
    0x98, 0x88, 0x87, 0x79, 0x78, 0x68, 0x89, 0x56, 0x86, 0x97,
    0x75, 0x66, 0x6a, 0x89, 0x98, 0x78, 0x78, 0x89, 0x49, 0x64,
